{
  "version": "1.0",
  "truncation": {
    "direction": "Right",
    "max_length": 128,
    "strategy": "LongestFirst",
    "stride": 0
  },
  "padding": {
    "strategy": {
      "Fixed": 128
    },
    "direction": "Right",
    "pad_to_multiple_of": null,
    "pad_id": 32000,
    "pad_type_id": 0,
    "pad_token": "<pad>"
  },
  "added_tokens": [
    {
      "id": 0,
      "content": "<unk>",
      "single_word": false,
      "lstrip": false,
      "rstrip": false,
      "normalized": false,
      "special": true
    },
    {
      "id": 1,
      "content": "<s>",
      "single_word": false,
      "lstrip": false,
      "rstrip": false,
      "normalized": false,
      "special": true
    },
    {
      "id": 2,
      "content": "</s>",
      "single_word": false,
      "lstrip": false,
      "rstrip": false,
      "normalized": false,
      "special": true
    },
    {
      "id": 3,
      "content": "[PAD]",
      "single_word": false,
      "lstrip": false,
      "rstrip": false,
      "normalized": false,
      "special": true
    },
    {
      "id": 4,
      "content": "[CLS]",
      "single_word": false,
      "lstrip": false,
      "rstrip": false,
      "normalized": false,
      "special": true
    },
    {
      "id": 5,
      "content": "[SEP]",
      "single_word": false,
      "lstrip": false,
      "rstrip": false,
      "normalized": false,
      "special": true
    },
    {
      "id": 6,
      "content": "[MASK]",
      "single_word": false,
      "lstrip": false,
      "rstrip": false,
      "normalized": false,
      "special": true
    },
    {
      "id": 32000,
      "content": "<pad>",
      "single_word": false,
      "lstrip": false,
      "rstrip": false,
      "normalized": false,
      "special": true
    }
  ],
  "normalizer": {
    "type": "Sequence",
    "normalizers": [
      {
        "type": "Replace",
        "pattern": {
          "String": "``"
        },
        "content": "\""
      },
      {
        "type": "Replace",
        "pattern": {
          "String": "''"
        },
        "content": "\""
      },
      {
        "type": "NFKD"
      },
      {
        "type": "StripAccents"
      },
      {
        "type": "Lowercase"
      },
      {
        "type": "Replace",
        "pattern": {
          "Regex": " {2,}"
        },
        "content": " "
      },
      {
        "type": "Replace",
        "pattern": {
          "Regex": " {2,}"
        },
        "content": " "
      }
    ]
  },
  "pre_tokenizer": {
    "type": "Sequence",
    "pretokenizers": [
      {
        "type": "WhitespaceSplit"
      },
      {
        "type": "Metaspace",
        "replacement": "▁",
        "prepend_scheme": "always",
        "split": true
      }
    ]
  },
  "post_processor": {
    "type": "TemplateProcessing",
    "single": [
      {
        "SpecialToken": {
          "id": "[CLS]",
          "type_id": 0
        }
      },
      {
        "Sequence": {
          "id": "A",
          "type_id": 0
        }
      },
      {
        "SpecialToken": {
          "id": "[SEP]",
          "type_id": 0
        }
      }
    ],
    "pair": [
      {
        "SpecialToken": {
          "id": "[CLS]",
          "type_id": 0
        }
      },
      {
        "Sequence": {
          "id": "A",
          "type_id": 0
        }
      },
      {
        "SpecialToken": {
          "id": "[SEP]",
          "type_id": 0
        }
      },
      {
        "Sequence": {
          "id": "B",
          "type_id": 1
        }
      },
      {
        "SpecialToken": {
          "id": "[SEP]",
          "type_id": 1
        }
      }
    ],
    "special_tokens": {
      "[CLS]": {
        "id": "[CLS]",
        "ids": [
          4
        ],
        "tokens": [
          "[CLS]"
        ]
      },
      "[SEP]": {
        "id": "[SEP]",
        "ids": [
          5
        ],
        "tokens": [
          "[SEP]"
        ]
      }
    }
  },
  "decoder": {
    "type": "Metaspace",
    "replacement": "▁",
    "prepend_scheme": "always",
    "split": true
  },
  "model": {
    "type": "Unigram",
    "unk_id": 1,
    "vocab": [
      [
        "<unk>",
        0.0
      ],
      [
        "<s>",
        0.0
      ],
      [
        "</s>",
        0.0
      ],
      [
        "[PAD]",
        0.0
      ],
      [
        "[CLS]",
        0.0
      ],
      [
        "[SEP]",
        0.0
      ],
      [
        "[MASK]",
        0.0
      ],
      [
        ".",
        -2.929806709289551
      ],
      [
        ",",
        -3.1822400093078613
      ],
      [
        "▁нь",
        -4.359091758728027
      ],
      [
        "▁",
        -4.774172306060791
      ],
      [
        "▁байна",
        -4.780913352966309
      ],
      [
        "-",
        -4.843689918518066
      ],
      [
        "▁\"",
        -4.917163372039795
      ],
      [
        "\"",
        -5.046505928039551
      ],
      [
        "▁байгаа",
        -5.198471546173096
      ],
      [
        "▁юм",
        -5.203835964202881
      ],
      [
        "ын",
        -5.209296703338623
      ],
      [
        "▁ч",
        -5.44577169418335
      ],
      [
        "▁гэж",
        -5.541260242462158
      ],
      [
        "д",
        -5.642746925354004
      ],
      [
        "ийн",
        -5.768636703491211
      ],
      [
        "▁энэ",
        -5.794971466064453
      ],
      [
        "▁байсан",
        -5.8446502685546875
      ],
      [
        "▁л",
        -5.845950126647949
      ],
      [
        "▁бол",
        -5.910791873931885
      ],
      [
        "▁Энэ",
        -5.960906982421875
      ],
      [
        "▁болон",
        -5.984672546386719
      ],
      [
        "▁нэг",
        -6.09350061416626
      ],
      [
        "▁Монгол",
        -6.097253322601318
      ],
      [
        "▁олон",
        -6.105033874511719
      ],
      [
        "ыг",
        -6.203362941741943
      ],
      [
        "гүй",
        -6.208858966827393
      ],
      [
        "▁гэсэн",
        -6.268625736236572
      ],
      [
        "ийг",
        -6.28028678894043
      ],
      [
        "▁их",
        -6.289205551147461
      ],
      [
        "т",
        -6.295816421508789
      ],
      [
        "▁хүн",
        -6.318713188171387
      ],
      [
        "▁байх",
        -6.320192813873291
      ],
      [
        ":",
        -6.350131988525391
      ],
      [
        "▁тухай",
        -6.352253437042236
      ],
      [
        "▁оны",
        -6.360687255859375
      ],
      [
        "г",
        -6.4000244140625
      ],
      [
        "▁Улсын",
        -6.427946090698242
      ],
      [
        "▁улсын",
        -6.445354461669922
      ],
      [
        "тай",
        -6.450309753417969
      ],
      [
        "▁сарын",
        -6.460851192474365
      ],
      [
        "?",
        -6.5033721923828125
      ],
      [
        "▁газар",
        -6.526583671569824
      ],
      [
        "▁дарга",
        -6.536435127258301
      ],
      [
        "ны",
        -6.538561820983887
      ],
      [
        "▁болсон",
        -6.552577018737793
      ],
      [
        "▁аж",
        -6.559408187866211
      ],
      [
        "▁байдаг",
        -6.5662994384765625
      ],
      [
        "▁дээр",
        -6.573878288269043
      ],
      [
        "▁хоёр",
        -6.58126974105835
      ],
      [
        "ээ",
        -6.595970630645752
      ],
      [
        "▁болно",
        -6.625164031982422
      ],
      [
        "▁онд",
        -6.636317253112793
      ],
      [
        "▁улс",
        -6.637407302856445
      ],
      [
        "▁буй",
        -6.646142482757568
      ],
      [
        "▁үйл",
        -6.684356689453125
      ],
      [
        "▁УИХ",
        -6.688783645629883
      ],
      [
        "▁тус",
        -6.702892780303955
      ],
      [
        "▁талаар",
        -6.703250885009766
      ],
      [
        "▁бөгөөд",
        -6.703699588775635
      ],
      [
        "▁газрын",
        -6.706027984619141
      ],
      [
        "▁Засгийн",
        -6.707093715667725
      ],
      [
        "▁болж",
        -6.70732307434082
      ],
      [
        "аас",
        -6.714062213897705
      ],
      [
        "▁төрийн",
        -6.725001811981201
      ],
      [
        "н",
        -6.7338690757751465
      ],
      [
        "▁болох",
        -6.740516185760498
      ],
      [
        "аа",
        -6.764936923980713
      ],
      [
        "тэй",
        -6.777185440063477
      ],
      [
        "р",
        -6.790443420410156
      ],
      [
        "▁гэдэг",
        -6.804862022399902
      ],
      [
        "▁эрх",
        -6.80857515335083
      ],
      [
        "▁хууль",
        -6.81593132019043
      ],
      [
        "аар",
        -6.821042060852051
      ],
      [
        "▁хуулийн",
        -6.822395324707031
      ],
      [
        "▁ямар",
        -6.8257365226745605
      ],
      [
        "▁Мөн",
        -6.826879978179932
      ],
      [
        "▁Харин",
        -6.834903240203857
      ],
      [
        "▁сайд",
        -6.836542129516602
      ],
      [
        "▁жилийн",
        -6.909595966339111
      ],
      [
        "▁орон",
        -6.917566776275635
      ],
      [
        "▁үед",
        -6.925023078918457
      ],
      [
        "▁эдийн",
        -6.9263200759887695
      ],
      [
        "▁авч",
        -6.931262493133545
      ],
      [
        "▁уу",
        -6.933436393737793
      ],
      [
        "▁жил",
        -6.937219142913818
      ],
      [
        "▁Б",
        -6.940697193145752
      ],
      [
        "▁албан",
        -6.941944599151611
      ],
      [
        "х",
        -6.967462062835693
      ],
      [
        "▁хувьд",
        -6.9677734375
      ],
      [
        "▁хийж",
        -6.973475933074951
      ],
      [
        "▁өдөр",
        -6.97615909576416
      ],
      [
        "▁Д",
        -6.976181507110596
      ],
      [
        "▁хувь",
        -7.001416206359863
      ],
      [
        "▁тэр",
        -7.001771926879883
      ],
      [
        "▁зохион",
        -7.007922172546387
      ],
      [
        "▁бий",
        -7.010156154632568
      ],
      [
        "▁сая",
        -7.014564514160156
      ],
      [
        "▁ажил",
        -7.015988826751709
      ],
      [
        "▁арга",
        -7.021838665008545
      ],
      [
        "▁санал",
        -7.0390849113464355
      ],
      [
        "▁сайн",
        -7.042601585388184
      ],
      [
        "▁цаг",
        -7.045737266540527
      ],
      [
        "нд",
        -7.051422595977783
      ],
      [
        "▁ёстой",
        -7.056467056274414
      ],
      [
        "▁нэр",
        -7.058682441711426
      ],
      [
        "▁хамгийн",
        -7.0715012550354
      ],
      [
        "▁нар",
        -7.07443904876709
      ],
      [
        "▁Монголын",
        -7.075974464416504
      ],
      [
        "▁ажиллаж",
        -7.077022552490234
      ],
      [
        "▁зэрэг",
        -7.0822062492370605
      ],
      [
        "▁вэ",
        -7.090422630310059
      ],
      [
        "▁буюу",
        -7.1054768562316895
      ],
      [
        "\"-",
        -7.106399059295654
      ],
      [
        "с",
        -7.108465194702148
      ],
      [
        "▁биш",
        -7.110949516296387
      ],
      [
        "▁үр",
        -7.11634635925293
      ],
      [
        "▁асуудал",
        -7.117675304412842
      ],
      [
        "▁засгийн",
        -7.12445592880249
      ],
      [
        "▁гишүүн",
        -7.127798080444336
      ],
      [
        "▁С",
        -7.140572547912598
      ],
      [
        "▁хэрэгтэй",
        -7.15983247756958
      ],
      [
        "▁гэх",
        -7.160705089569092
      ],
      [
        "▁бид",
        -7.162890434265137
      ],
      [
        "▁гээд",
        -7.170893669128418
      ],
      [
        "▁хэмээн",
        -7.1732611656188965
      ],
      [
        "▁дараа",
        -7.177838325500488
      ],
      [
        "▁дугаар",
        -7.179080486297607
      ],
      [
        "▁дээ",
        -7.189216136932373
      ],
      [
        "▁өмнө",
        -7.192684173583984
      ],
      [
        "▁авах",
        -7.193104267120361
      ],
      [
        "▁хүний",
        -7.201940059661865
      ],
      [
        "▁бусад",
        -7.21238374710083
      ],
      [
        "/",
        -7.227635383605957
      ],
      [
        "▁хөрөнгө",
        -7.227953910827637
      ],
      [
        "▁градус",
        -7.229966163635254
      ],
      [
        "▁ажлын",
        -7.235919952392578
      ],
      [
        "ээр",
        -7.240097999572754
      ],
      [
        "▁манай",
        -7.240245819091797
      ],
      [
        "▁байж",
        -7.255597114562988
      ],
      [
        "▁зүйл",
        -7.26555061340332
      ],
      [
        "▁мэдээлэл",
        -7.2723588943481445
      ],
      [
        "▁нийт",
        -7.278325080871582
      ],
      [
        "▁Их",
        -7.28640079498291
      ],
      [
        "▁Н",
        -7.28688907623291
      ],
      [
        "▁аймгийн",
        -7.288162708282471
      ],
      [
        "▁дахь",
        -7.288998603820801
      ],
      [
        "гийн",
        -7.292359828948975
      ],
      [
        "▁хийх",
        -7.300274848937988
      ],
      [
        "▁шинэ",
        -7.3123579025268555
      ],
      [
        "▁зарим",
        -7.313457489013672
      ],
      [
        "▁нутгийн",
        -7.313551425933838
      ],
      [
        "▁2",
        -7.322249889373779
      ],
      [
        "▁ам",
        -7.324841022491455
      ],
      [
        "▁шүү",
        -7.328050136566162
      ],
      [
        "▁гаруй",
        -7.331376075744629
      ],
      [
        "ад",
        -7.332520961761475
      ],
      [
        "▁эх",
        -7.3326520919799805
      ],
      [
        "▁мөн",
        -7.336364269256592
      ],
      [
        "▁үг",
        -7.341268062591553
      ],
      [
        "▁хэрэг",
        -7.341901779174805
      ],
      [
        "▁гэдгийг",
        -7.345066070556641
      ],
      [
        "▁бүх",
        -7.356966972351074
      ],
      [
        "▁дагуу",
        -7.361624240875244
      ],
      [
        "▁та",
        -7.367124080657959
      ],
      [
        "▁хүмүүс",
        -7.38156270980835
      ],
      [
        "▁Ерөнхий",
        -7.3828558921813965
      ],
      [
        "▁билээ",
        -7.385313510894775
      ],
      [
        "▁асуудлыг",
        -7.3876166343688965
      ],
      [
        "▁тэрбум",
        -7.38959264755249
      ],
      [
        "▁ирсэн",
        -7.392505645751953
      ],
      [
        "▁бус",
        -7.3929972648620605
      ],
      [
        "▁10",
        -7.393130302429199
      ],
      [
        "▁маш",
        -7.393664836883545
      ],
      [
        "▁хүртэл",
        -7.3959832191467285
      ],
      [
        "ж",
        -7.405433654785156
      ],
      [
        "▁юу",
        -7.420546054840088
      ],
      [
        "▁бүр",
        -7.427319049835205
      ],
      [
        "▁би",
        -7.430739879608154
      ],
      [
        "▁хугацаанд",
        -7.434988498687744
      ],
      [
        "▁авсан",
        -7.435538291931152
      ],
      [
        "▁Тиймээс",
        -7.439636707305908
      ],
      [
        "▁/",
        -7.441283226013184
      ],
      [
        "▁удаа",
        -7.441772937774658
      ],
      [
        "▁шиг",
        -7.445045471191406
      ],
      [
        "▁1",
        -7.4463067054748535
      ],
      [
        "▁том",
        -7.446331024169922
      ],
      [
        "▁Ц",
        -7.447979927062988
      ],
      [
        "▁гол",
        -7.453840255737305
      ],
      [
        "▁өндөр",
        -7.461944580078125
      ],
      [
        "▁ард",
        -7.464385509490967
      ],
      [
        "ээс",
        -7.4715423583984375
      ],
      [
        "ний",
        -7.472386360168457
      ],
      [
        "ч",
        -7.475536346435547
      ],
      [
        "▁Гэхдээ",
        -7.478712558746338
      ],
      [
        "▁нэгэн",
        -7.4792561531066895
      ],
      [
        "▁3",
        -7.492155075073242
      ],
      [
        "▁эрүүл",
        -7.496273994445801
      ],
      [
        "▁мянган",
        -7.498345851898193
      ],
      [
        "▁байдал",
        -7.502321720123291
      ],
      [
        "▁ажиллагаа",
        -7.506589412689209
      ],
      [
        "▁бага",
        -7.508335590362549
      ],
      [
        "▁хийсэн",
        -7.509860038757324
      ],
      [
        "▁учраас",
        -7.526488304138184
      ],
      [
        "▁дахин",
        -7.531737804412842
      ],
      [
        "▁хүрээнд",
        -7.538135051727295
      ],
      [
        "▁илүү",
        -7.54095458984375
      ],
      [
        "▁Г",
        -7.545481204986572
      ],
      [
        "▁хотын",
        -7.549106597900391
      ],
      [
        "▁тодорхой",
        -7.552701950073242
      ],
      [
        "▁гэр",
        -7.560400009155273
      ],
      [
        "▁М",
        -7.565902233123779
      ],
      [
        "▁(",
        -7.566902160644531
      ],
      [
        "▁гарч",
        -7.573009014129639
      ],
      [
        "▁өөр",
        -7.579164028167725
      ],
      [
        "▁зүйн",
        -7.579702854156494
      ],
      [
        "▁Тэр",
        -7.58228874206543
      ],
      [
        "▁өөрийн",
        -7.588107585906982
      ],
      [
        "▁бүхий",
        -7.5927276611328125
      ],
      [
        "▁иргэд",
        -7.598299026489258
      ],
      [
        "▁Х",
        -7.598668098449707
      ],
      [
        "▁байлаа",
        -7.598875999450684
      ],
      [
        "▁гурван",
        -7.600085735321045
      ],
      [
        "▁Та",
        -7.600180625915527
      ],
      [
        "▁үү",
        -7.615041255950928
      ],
      [
        "▁орж",
        -7.617899417877197
      ],
      [
        "▁үеэр",
        -7.620371341705322
      ],
      [
        "▁төсөл",
        -7.620744705200195
      ],
      [
        "▁тул",
        -7.622212886810303
      ],
      [
        "▁байр",
        -7.622568130493164
      ],
      [
        "▁ийм",
        -7.625951766967773
      ],
      [
        "▁нутгаар",
        -7.627692699432373
      ],
      [
        ")",
        -7.629510879516602
      ],
      [
        "▁хэдэн",
        -7.634339809417725
      ],
      [
        "▁ба",
        -7.636106014251709
      ],
      [
        "▁холбоотой",
        -7.636608123779297
      ],
      [
        "▁зам",
        -7.639899730682373
      ],
      [
        "▁хамтран",
        -7.6453399658203125
      ],
      [
        "▁ажиллах",
        -7.647952556610107
      ],
      [
        "▁өдөртөө",
        -7.648682117462158
      ],
      [
        "▁хүнд",
        -7.652885913848877
      ],
      [
        "▁бүрэн",
        -7.653007984161377
      ],
      [
        "▁чухал",
        -7.653772354125977
      ],
      [
        "▁ахуйн",
        -7.663788795471191
      ],
      [
        "▁хэм",
        -7.664034843444824
      ],
      [
        "▁хойш",
        -7.6709418296813965
      ],
      [
        "▁дунд",
        -7.6729655265808105
      ],
      [
        "▁хөгжлийн",
        -7.673353672027588
      ],
      [
        "▁тулд",
        -7.674612045288086
      ],
      [
        "▁Би",
        -7.677302837371826
      ],
      [
        "даа",
        -7.6779093742370605
      ],
      [
        "▁хэмжээ",
        -7.680777549743652
      ],
      [
        "▁өнгөрсөн",
        -7.6831231117248535
      ],
      [
        "▁бас",
        -7.6902642250061035
      ],
      [
        "▁байгааг",
        -7.690797328948975
      ],
      [
        "▁хувийн",
        -7.690891265869141
      ],
      [
        "▁намын",
        -7.693719387054443
      ],
      [
        "▁гаргасан",
        -7.70058012008667
      ],
      [
        "▁хорооны",
        -7.700681686401367
      ],
      [
        "▁хүүхэд",
        -7.704507827758789
      ],
      [
        "▁боломжтой",
        -7.711047649383545
      ],
      [
        "▁бие",
        -7.71292781829834
      ],
      [
        "▁байхгүй",
        -7.715019226074219
      ],
      [
        "▁Гэтэл",
        -7.715062141418457
      ],
      [
        "▁метр",
        -7.721127986907959
      ],
      [
        "▁гадна",
        -7.721286773681641
      ],
      [
        "▁дэлхийн",
        -7.724396705627441
      ],
      [
        "▁хэмжээний",
        -7.7287373542785645
      ],
      [
        "▁Манай",
        -7.730246067047119
      ],
      [
        "▁байдлаар",
        -7.732879161834717
      ],
      [
        "▁дүүргийн",
        -7.733351230621338
      ],
      [
        "▁төгрөг",
        -7.7339253425598145
      ],
      [
        "▁сайхан",
        -7.735166549682617
      ],
      [
        "▁баруун",
        -7.737317085266113
      ],
      [
        "▁төлөө",
        -7.737554550170898
      ],
      [
        "▁Улаанбаатар",
        -7.740549564361572
      ],
      [
        "▁мөнгө",
        -7.742227554321289
      ],
      [
        "▁төв",
        -7.750611305236816
      ],
      [
        "▁ажлыг",
        -7.752358913421631
      ],
      [
        "▁өгсөн",
        -7.754624366760254
      ],
      [
        "▁Төрийн",
        -7.756394863128662
      ],
      [
        "▁уг",
        -7.756470680236816
      ],
      [
        "▁төр",
        -7.758601665496826
      ],
      [
        "▁орны",
        -7.76174259185791
      ],
      [
        "▁хүлээн",
        -7.767020225524902
      ],
      [
        "▁маань",
        -7.768045425415039
      ],
      [
        "▁зах",
        -7.7690300941467285
      ],
      [
        "▁4",
        -7.771064758300781
      ],
      [
        "▁гарсан",
        -7.775487899780273
      ],
      [
        "▁дэд",
        -7.7759294509887695
      ],
      [
        "▁Нийслэлийн",
        -7.784229755401611
      ],
      [
        "▁20",
        -7.785536766052246
      ],
      [
        "▁МАН",
        -7.7899250984191895
      ],
      [
        "а",
        -7.790287494659424
      ],
      [
        "▁гаргаж",
        -7.790489196777344
      ],
      [
        "▁байгууллага",
        -7.791894912719727
      ],
      [
        "▁өөрчлөлт",
        -7.798598766326904
      ],
      [
        "▁5",
        -7.802334308624268
      ],
      [
        "▁иргэдийн",
        -7.802404403686523
      ],
      [
        "▁тухайн",
        -7.804279327392578
      ],
      [
        "▁өнөөдөр",
        -7.804673194885254
      ],
      [
        "▁сард",
        -7.804876327514648
      ],
      [
        "v",
        -7.810625076293945
      ],
      [
        "▁өргөн",
        -7.8121657371521
      ],
      [
        "▁хэн",
        -7.8137736320495605
      ],
      [
        "▁үнэ",
        -7.813817501068115
      ],
      [
        "ы",
        -7.814503192901611
      ],
      [
        "сан",
        -7.82252311706543
      ],
      [
        "▁ирэх",
        -7.825088024139404
      ],
      [
        "▁цагт",
        -7.827401161193848
      ],
      [
        "▁Улс",
        -7.8294148445129395
      ],
      [
        "▁хэмжээг",
        -7.829745769500732
      ],
      [
        "▁түүний",
        -7.83469820022583
      ],
      [
        "▁боломж",
        -7.835310935974121
      ],
      [
        "▁одоо",
        -7.83559513092041
      ],
      [
        "▁байгуулах",
        -7.83689546585083
      ],
      [
        "▁хэсэг",
        -7.8382887840271
      ],
      [
        "▁байв",
        -7.839564323425293
      ],
      [
        "▁дээд",
        -7.845510482788086
      ],
      [
        "▁Ерөнхийлөгч",
        -7.8460564613342285
      ],
      [
        "▁зөв",
        -7.846977233886719
      ],
      [
        "▁Ж",
        -7.8571319580078125
      ],
      [
        "▁нийгмийн",
        -7.857541084289551
      ],
      [
        "▁хуульд",
        -7.86430549621582
      ],
      [
        "ий",
        -7.864481449127197
      ],
      [
        "▁гэнэ",
        -7.865677356719971
      ],
      [
        "▁тал",
        -7.866734981536865
      ],
      [
        "▁бодлого",
        -7.871592998504639
      ],
      [
        "▁оруулах",
        -7.871967792510986
      ],
      [
        "▁засаг",
        -7.875746250152588
      ],
      [
        "▁үндэсний",
        -7.876158714294434
      ],
      [
        "▁руу",
        -7.878758430480957
      ],
      [
        "▁шаардлагатай",
        -7.880206108093262
      ],
      [
        "▁ерөнхий",
        -7.881505012512207
      ],
      [
        "▁А",
        -7.887015342712402
      ],
      [
        "▁шийдвэр",
        -7.888909816741943
      ],
      [
        "▁тээврийн",
        -7.890057563781738
      ],
      [
        "▁нутаг",
        -7.898448467254639
      ],
      [
        "той",
        -7.901529788970947
      ],
      [
        "▁хамгаалах",
        -7.906527519226074
      ],
      [
        "▁мэт",
        -7.9069318771362305
      ],
      [
        "▁Уг",
        -7.907516002655029
      ],
      [
        "▁компани",
        -7.91106653213501
      ],
      [
        "▁орчим",
        -7.914597988128662
      ],
      [
        "▁хэмжээнд",
        -7.915855407714844
      ],
      [
        "л",
        -7.9164557456970215
      ],
      [
        "▁үүрэг",
        -7.918111324310303
      ],
      [
        "▁зээл",
        -7.919452667236328
      ],
      [
        "▁хэлж",
        -7.91950798034668
      ],
      [
        "▁чинь",
        -7.92061710357666
      ],
      [
        "▁нийслэлийн",
        -7.925207614898682
      ],
      [
        "▁иргэн",
        -7.926862716674805
      ],
      [
        "▁Т",
        -7.928508281707764
      ],
      [
        "▁Засаг",
        -7.931032180786133
      ],
      [
        "эд",
        -7.931917190551758
      ],
      [
        "▁хамт",
        -7.932524681091309
      ],
      [
        "▁замын",
        -7.936305522918701
      ],
      [
        "▁болоод",
        -7.937760829925537
      ],
      [
        "▁байвал",
        -7.941068649291992
      ],
      [
        "▁Тус",
        -7.9414191246032715
      ],
      [
        "▁Бид",
        -7.942413806915283
      ],
      [
        "▁АНУ",
        -7.942877769470215
      ],
      [
        "▁нөхцөл",
        -7.944169998168945
      ],
      [
        "▁явж",
        -7.9490251541137695
      ],
      [
        "▁байхад",
        -7.950953483581543
      ],
      [
        "▁АН",
        -7.95180082321167
      ],
      [
        "▁нийтийн",
        -7.955934047698975
      ],
      [
        "▁хамтын",
        -7.956586837768555
      ],
      [
        "▁секундэд",
        -7.957230567932129
      ],
      [
        "▁сэтгэл",
        -7.960258960723877
      ],
      [
        "▁аль",
        -7.963183403015137
      ],
      [
        "▁2016",
        -7.974020957946777
      ],
      [
        "▁тоо",
        -7.974126815795898
      ],
      [
        "▁Л",
        -7.976109981536865
      ],
      [
        "▁нарын",
        -7.976480484008789
      ],
      [
        "▁мэндийн",
        -7.9777655601501465
      ],
      [
        "▁болгох",
        -7.981318950653076
      ],
      [
        "▁үзэж",
        -7.983024597167969
      ],
      [
        "▁улсад",
        -7.9892706871032715
      ],
      [
        "▁төсвийн",
        -7.990674018859863
      ],
      [
        "▁хэрхэн",
        -7.997162818908691
      ],
      [
        "▁төгрөгийн",
        -7.997488975524902
      ],
      [
        "▁хариуцлага",
        -7.999866485595703
      ],
      [
        "▁хар",
        -8.001612663269043
      ],
      [
        "▁холбогдох",
        -8.00377082824707
      ],
      [
        "▁монгол",
        -8.005414009094238
      ],
      [
        "Н",
        -8.010537147521973
      ],
      [
        "▁энэхүү",
        -8.010822296142578
      ],
      [
        "▁үеийн",
        -8.011338233947754
      ],
      [
        "▁ёс",
        -8.014735221862793
      ],
      [
        "▁11",
        -8.014771461486816
      ],
      [
        "ан",
        -8.018244743347168
      ],
      [
        "▁дулаан",
        -8.019234657287598
      ],
      [
        "▁нам",
        -8.019561767578125
      ],
      [
        "▁аюулгүй",
        -8.021772384643555
      ],
      [
        "▁Үндсэн",
        -8.022917747497559
      ],
      [
        "▁Тэгвэл",
        -8.025704383850098
      ],
      [
        "▁2017",
        -8.027366638183594
      ],
      [
        "▁үе",
        -8.031656265258789
      ],
      [
        "▁ажиллагааны",
        -8.032177925109863
      ],
      [
        "▁байгууллагын",
        -8.03325366973877
      ],
      [
        "▁гэмт",
        -8.033263206481934
      ],
      [
        "▁байдлыг",
        -8.03683853149414
      ],
      [
        "▁дүгээр",
        -8.036894798278809
      ],
      [
        "▁Ч",
        -8.03763198852539
      ],
      [
        "▁ажиллагааг",
        -8.03763484954834
      ],
      [
        "▁байнгын",
        -8.038846015930176
      ],
      [
        "▁зээлийн",
        -8.039730072021484
      ],
      [
        "даг",
        -8.042497634887695
      ],
      [
        "▁Хурлын",
        -8.0432767868042
      ],
      [
        "▁6",
        -8.045730590820312
      ],
      [
        "дээ",
        -8.050751686096191
      ],
      [
        "▁эхэлсэн",
        -8.05431842803955
      ],
      [
        "▁багш",
        -8.056612014770508
      ],
      [
        "оо",
        -8.061366081237793
      ],
      [
        "▁өгч",
        -8.062226295471191
      ],
      [
        "▁шөнөдөө",
        -8.063634872436523
      ],
      [
        "▁сургуулийн",
        -8.06417465209961
      ],
      [
        "▁хүүхдийн",
        -8.065803527832031
      ],
      [
        "▁Олон",
        -8.068062782287598
      ],
      [
        "▁төслийг",
        -8.068220138549805
      ],
      [
        "▁байгуулж",
        -8.069150924682617
      ],
      [
        "▁өгөх",
        -8.070259094238281
      ],
      [
        "▁газраас",
        -8.07065486907959
      ],
      [
        "▁бэ",
        -8.075056076049805
      ],
      [
        "▁12",
        -8.075287818908691
      ],
      [
        "▁даргын",
        -8.075556755065918
      ],
      [
        "▁гадаад",
        -8.079455375671387
      ],
      [
        "▁гэхэд",
        -8.083984375
      ],
      [
        "▁сумын",
        -8.08530330657959
      ],
      [
        "▁хүчин",
        -8.08898639678955
      ],
      [
        "▁хүчний",
        -8.089286804199219
      ],
      [
        "▁7",
        -8.095486640930176
      ],
      [
        "▁уран",
        -8.097681999206543
      ],
      [
        "▁даа",
        -8.100137710571289
      ],
      [
        "▁2018",
        -8.10158920288086
      ],
      [
        "▁хэргийн",
        -8.10616683959961
      ],
      [
        "▁ирж",
        -8.108474731445312
      ],
      [
        "▁салбарын",
        -8.117714881896973
      ],
      [
        "▁болохгүй",
        -8.117901802062988
      ],
      [
        "▁Гэвч",
        -8.122705459594727
      ],
      [
        "▁байдлын",
        -8.12311840057373
      ],
      [
        "▁учир",
        -8.123241424560547
      ],
      [
        "▁бүс",
        -8.128921508789062
      ],
      [
        "▁хот",
        -8.131842613220215
      ],
      [
        "▁зүүн",
        -8.133661270141602
      ],
      [
        "▁гаргах",
        -8.134568214416504
      ],
      [
        "▁2015",
        -8.134767532348633
      ],
      [
        "▁нэгдсэн",
        -8.13532829284668
      ],
      [
        "▁дотор",
        -8.138460159301758
      ],
      [
        "▁гар",
        -8.140908241271973
      ],
      [
        "▁зөвхөн",
        -8.141550064086914
      ],
      [
        "mn",
        -8.141800880432129
      ],
      [
        "▁100",
        -8.14278793334961
      ],
      [
        "▁хэлсэн",
        -8.145898818969727
      ],
      [
        "▁эхний",
        -8.15691089630127
      ],
      [
        "▁Одоо",
        -8.157431602478027
      ],
      [
        "▁мэргэжлийн",
        -8.157496452331543
      ],
      [
        "▁ОХУ",
        -8.160243034362793
      ],
      [
        "▁болжээ",
        -8.161445617675781
      ],
      [
        "▁компанийн",
        -8.1619234085083
      ],
      [
        "▁болов",
        -8.16243839263916
      ],
      [
        "▁нас",
        -8.16365909576416
      ],
      [
        "▁хэрэгжүүлэх",
        -8.166092872619629
      ],
      [
        "▁танд",
        -8.167485237121582
      ],
      [
        "▁анхны",
        -8.169586181640625
      ],
      [
        "▁болохоор",
        -8.172045707702637
      ],
      [
        "▁хувийг",
        -8.172388076782227
      ],
      [
        "▁сүүлийн",
        -8.1740140914917
      ],
      [
        "▁гишүүд",
        -8.175105094909668
      ],
      [
        "▁30",
        -8.175162315368652
      ],
      [
        "▁дөрвөн",
        -8.17712688446045
      ],
      [
        "▁сургууль",
        -8.179585456848145
      ],
      [
        "▁газарт",
        -8.188608169555664
      ],
      [
        "▁орчин",
        -8.188933372497559
      ],
      [
        "▁байгуулсан",
        -8.188990592956543
      ],
      [
        "▁мэдээллийн",
        -8.191143989562988
      ],
      [
        "ууд",
        -8.193589210510254
      ],
      [
        "▁болгож",
        -8.196698188781738
      ],
      [
        "▁оруулж",
        -8.198299407958984
      ],
      [
        "▁өөрөө",
        -8.202958106994629
      ],
      [
        "▁анх",
        -8.203241348266602
      ],
      [
        "▁муу",
        -8.205323219299316
      ],
      [
        "▁–",
        -8.207027435302734
      ],
      [
        "▁хүрч",
        -8.208436012268066
      ],
      [
        "▁Түүнчлэн",
        -8.210112571716309
      ],
      [
        "▁байгаад",
        -8.21016788482666
      ],
      [
        "▁дээрх",
        -8.213216781616211
      ],
      [
        "▁байжээ",
        -8.215449333190918
      ],
      [
        "▁Энэхүү",
        -8.21604061126709
      ],
      [
        "▁салбарт",
        -8.216158866882324
      ],
      [
        "оор",
        -8.216203689575195
      ],
      [
        "▁шаардлага",
        -8.216934204101562
      ],
      [
        "▁хувиар",
        -8.217389106750488
      ],
      [
        "▁чадахгүй",
        -8.219239234924316
      ],
      [
        "▁Э",
        -8.219575881958008
      ],
      [
        "▁тусгай",
        -8.219722747802734
      ],
      [
        "ц",
        -8.221296310424805
      ],
      [
        "▁О",
        -8.222039222717285
      ],
      [
        "▁оролцож",
        -8.222787857055664
      ],
      [
        "▁Үндэсний",
        -8.222894668579102
      ],
      [
        "▁8",
        -8.223012924194336
      ],
      [
        "▁ашиг",
        -8.230069160461426
      ],
      [
        "▁эсвэл",
        -8.231755256652832
      ],
      [
        "▁Салхи",
        -8.233859062194824
      ],
      [
        "▁мэдээ",
        -8.235468864440918
      ],
      [
        "▁ХХК",
        -8.236482620239258
      ],
      [
        "▁оноос",
        -8.236834526062012
      ],
      [
        "▁жилд",
        -8.239583969116211
      ],
      [
        "▁төрлийн",
        -8.240209579467773
      ],
      [
        "▁таван",
        -8.242862701416016
      ],
      [
        "▁Тухайлбал",
        -8.243701934814453
      ],
      [
        "▁н",
        -8.244711875915527
      ],
      [
        "▁эсрэг",
        -8.245333671569824
      ],
      [
        "▁боллоо",
        -8.246222496032715
      ],
      [
        "▁гэрээ",
        -8.248693466186523
      ],
      [
        "▁шууд",
        -8.24903392791748
      ],
      [
        "▁түүнийг",
        -8.254457473754883
      ],
      [
        "▁харж",
        -8.260841369628906
      ],
      [
        "▁төслийн",
        -8.264881134033203
      ],
      [
        "▁санхүүгийн",
        -8.266481399536133
      ],
      [
        "▁үндсэн",
        -8.267338752746582
      ],
      [
        "▁чиглэлээр",
        -8.271336555480957
      ],
      [
        "▁өмнөх",
        -8.272611618041992
      ],
      [
        "▁ярьж",
        -8.272970199584961
      ],
      [
        "▁нарийн",
        -8.273996353149414
      ],
      [
        "▁орсон",
        -8.279790878295898
      ],
      [
        "▁залуу",
        -8.280564308166504
      ],
      [
        "▁сонгуулийн",
        -8.282269477844238
      ],
      [
        "▁болгон",
        -8.282875061035156
      ],
      [
        "▁тийм",
        -8.283456802368164
      ],
      [
        "оос",
        -8.287419319152832
      ],
      [
        "▁миний",
        -8.294597625732422
      ],
      [
        "▁мэдээллийг",
        -8.295108795166016
      ],
      [
        "▁долоо",
        -8.297142028808594
      ],
      [
        "▁нэмэлт",
        -8.299331665039062
      ],
      [
        "▁хүч",
        -8.301870346069336
      ],
      [
        "▁албаны",
        -8.302709579467773
      ],
      [
        "▁Нэг",
        -8.304132461547852
      ],
      [
        "▁хүйтэн",
        -8.30482006072998
      ],
      [
        "▁барьж",
        -8.305152893066406
      ],
      [
        "▁хороо",
        -8.308480262756348
      ],
      [
        "▁хангах",
        -8.308568954467773
      ],
      [
        ";",
        -8.309203147888184
      ],
      [
        "▁хоногийн",
        -8.30980110168457
      ],
      [
        "Д",
        -8.310965538024902
      ],
      [
        "▁хугацаа",
        -8.312253952026367
      ],
      [
        "▁хэл",
        -8.31308364868164
      ],
      [
        "▁салбар",
        -8.313825607299805
      ],
      [
        "аад",
        -8.314510345458984
      ],
      [
        "▁цагдаагийн",
        -8.315067291259766
      ],
      [
        "▁сар",
        -8.31556510925293
      ],
      [
        "▁Тэрбээр",
        -8.315890312194824
      ],
      [
        "▁санаа",
        -8.318385124206543
      ],
      [
        "▁захирал",
        -8.320085525512695
      ],
      [
        "м",
        -8.320660591125488
      ],
      [
        "▁томоохон",
        -8.321269989013672
      ],
      [
        "▁гарах",
        -8.321712493896484
      ],
      [
        "▁насны",
        -8.3238525390625
      ],
      [
        "▁9",
        -8.324533462524414
      ],
      [
        "▁хэд",
        -8.326528549194336
      ],
      [
        "▁настай",
        -8.32724380493164
      ],
      [
        "▁хяналт",
        -8.331278800964355
      ],
      [
        "▁З",
        -8.331600189208984
      ],
      [
        "▁явдал",
        -8.332061767578125
      ],
      [
        "▁15",
        -8.333113670349121
      ],
      [
        "▁Ерөнхийлөгчийн",
        -8.333229064941406
      ],
      [
        "▁хэлбэл",
        -8.33484935760498
      ],
      [
        "▁агаарын",
        -8.33497428894043
      ],
      [
        "▁эд",
        -8.336421012878418
      ],
      [
        "на",
        -8.337118148803711
      ],
      [
        "s",
        -8.337806701660156
      ],
      [
        "▁минь",
        -8.338473320007324
      ],
      [
        "▁он",
        -8.340538024902344
      ],
      [
        "▁уул",
        -8.341190338134766
      ],
      [
        "▁өдрийн",
        -8.342212677001953
      ],
      [
        "▁тавьж",
        -8.343825340270996
      ],
      [
        "▁баримт",
        -8.345847129821777
      ],
      [
        "▁дэмжих",
        -8.346757888793945
      ],
      [
        "▁бодлогын",
        -8.348590850830078
      ],
      [
        "▁хооронд",
        -8.350042343139648
      ],
      [
        "▁Ийм",
        -8.350909233093262
      ],
      [
        "▁баг",
        -8.353029251098633
      ],
      [
        "▁бидний",
        -8.356678009033203
      ],
      [
        "▁хүү",
        -8.360820770263672
      ],
      [
        "▁Үүний",
        -8.361102104187012
      ],
      [
        "▁худалдан",
        -8.362075805664062
      ],
      [
        "▁боловч",
        -8.362577438354492
      ],
      [
        "▁эмч",
        -8.363094329833984
      ],
      [
        "Монгол",
        -8.363178253173828
      ],
      [
        "▁цэргийн",
        -8.364480972290039
      ],
      [
        "хан",
        -8.365025520324707
      ],
      [
        "▁аварга",
        -8.366850852966309
      ],
      [
        "▁удаагийн",
        -8.367770195007324
      ],
      [
        "▁хэсгээр",
        -8.367971420288086
      ],
      [
        "▁Учир",
        -8.37005615234375
      ],
      [
        "▁ил",
        -8.37291145324707
      ],
      [
        "▁шинээр",
        -8.379739761352539
      ],
      [
        "ид",
        -8.382829666137695
      ],
      [
        "в",
        -8.382986068725586
      ],
      [
        "▁хөтөлбөр",
        -8.38321304321289
      ],
      [
        "▁50",
        -8.38438606262207
      ],
      [
        "▁болдог",
        -8.385327339172363
      ],
      [
        "▁бичсэн",
        -8.385422706604004
      ],
      [
        "▁мал",
        -8.385610580444336
      ],
      [
        "▁хөгжүүлэх",
        -8.387613296508789
      ],
      [
        "▁сайдын",
        -8.38835334777832
      ],
      [
        "▁ус",
        -8.388391494750977
      ],
      [
        "▁хүлээж",
        -8.388401985168457
      ],
      [
        "▁Тэд",
        -8.390320777893066
      ],
      [
        "▁Ер",
        -8.390787124633789
      ],
      [
        "▁Тэгэхээр",
        -8.391850471496582
      ],
      [
        "▁У",
        -8.39468002319336
      ],
      [
        "▁дүн",
        -8.398091316223145
      ],
      [
        "▁явуулж",
        -8.399508476257324
      ],
      [
        "С",
        -8.400673866271973
      ],
      [
        "▁Дэлхийн",
        -8.405253410339355
      ],
      [
        "▁Өнгөрсөн",
        -8.408982276916504
      ],
      [
        "▁Монголд",
        -8.410239219665527
      ],
      [
        "▁ач",
        -8.410704612731934
      ],
      [
        "▁хотод",
        -8.415019989013672
      ],
      [
        "▁зүгээс",
        -8.415664672851562
      ],
      [
        "▁бодож",
        -8.418173789978027
      ],
      [
        "▁банкны",
        -8.420440673828125
      ],
      [
        "ш",
        -8.420533180236816
      ],
      [
        "хаа",
        -8.421462059020996
      ],
      [
        "▁банк",
        -8.421472549438477
      ],
      [
        "наас",
        -8.425108909606934
      ],
      [
        "▁үйлдвэрийн",
        -8.42737102508545
      ],
      [
        "▁дуу",
        -8.430908203125
      ],
      [
        "▁БНХАУ",
        -8.431546211242676
      ],
      [
        "▁Өнөөдөр",
        -8.431605339050293
      ],
      [
        "▁барих",
        -8.433053970336914
      ],
      [
        "▁хүнийг",
        -8.433402061462402
      ],
      [
        "▁бичиг",
        -8.434795379638672
      ],
      [
        "▁Үүнээс",
        -8.436395645141602
      ],
      [
        "▁хуулийг",
        -8.436504364013672
      ],
      [
        "▁зураг",
        -8.437847137451172
      ],
      [
        "з",
        -8.438645362854004
      ],
      [
        "▁үйлчилгээ",
        -8.439396858215332
      ],
      [
        "▁Тийм",
        -8.440556526184082
      ],
      [
        "▁асуудлаар",
        -8.442770004272461
      ],
      [
        "▁тэд",
        -8.44279670715332
      ],
      [
        "Т",
        -8.445240020751953
      ],
      [
        "▁явах",
        -8.445476531982422
      ],
      [
        "▁х",
        -8.445905685424805
      ],
      [
        "▁2014",
        -8.449124336242676
      ],
      [
        "▁зорилгоор",
        -8.449463844299316
      ],
      [
        "▁олж",
        -8.453960418701172
      ],
      [
        "▁тэдний",
        -8.454227447509766
      ],
      [
        "▁баяр",
        -8.45447826385498
      ],
      [
        "▁алба",
        -8.455354690551758
      ],
      [
        "▁эмэгтэй",
        -8.457212448120117
      ],
      [
        "▁түр",
        -8.459856033325195
      ],
      [
        "▁төгрөгөөр",
        -8.460383415222168
      ],
      [
        "▁тогтвортой",
        -8.462852478027344
      ],
      [
        "▁таны",
        -8.463225364685059
      ],
      [
        "▁Ш",
        -8.463428497314453
      ],
      [
        "▁ээ",
        -8.463464736938477
      ],
      [
        "▁тохиолдолд",
        -8.466320037841797
      ],
      [
        "▁оролцсон",
        -8.46842098236084
      ],
      [
        "▁цахим",
        -8.470117568969727
      ],
      [
        "▁төмөр",
        -8.471786499023438
      ],
      [
        "▁яам",
        -8.471945762634277
      ],
      [
        "▁явсан",
        -8.474557876586914
      ],
      [
        "▁биз",
        -8.475774765014648
      ],
      [
        "▁хүмүүсийн",
        -8.47848129272461
      ],
      [
        "▁Хууль",
        -8.478708267211914
      ],
      [
        "▁эрчим",
        -8.478885650634766
      ],
      [
        "▁ажээ",
        -8.479094505310059
      ],
      [
        "▁нэмэгдүүлэх",
        -8.48752212524414
      ],
      [
        "▁олгох",
        -8.490921020507812
      ],
      [
        "▁буруу",
        -8.491328239440918
      ],
      [
        "▁цагийн",
        -8.492762565612793
      ],
      [
        "▁үгүй",
        -8.494711875915527
      ],
      [
        "▁14",
        -8.496082305908203
      ],
      [
        "▁уурхайн",
        -8.49645709991455
      ],
      [
        "▁дэх",
        -8.49899673461914
      ],
      [
        "▁аймаг",
        -8.499149322509766
      ],
      [
        "▁цаашид",
        -8.499481201171875
      ],
      [
        "▁сэтгэгдэл",
        -8.499524116516113
      ],
      [
        "▁үйлдвэр",
        -8.499631881713867
      ],
      [
        "▁Ингээд",
        -8.500638961791992
      ],
      [
        "▁үйлчилгээний",
        -8.501360893249512
      ],
      [
        "▁хурал",
        -8.501424789428711
      ],
      [
        "▁төвийн",
        -8.50155258178711
      ],
      [
        "▁П",
        -8.501673698425293
      ],
      [
        "▁харилцаа",
        -8.502583503723145
      ],
      [
        "▁бүтээгдэхүүн",
        -8.503576278686523
      ],
      [
        "▁улам",
        -8.50397777557373
      ],
      [
        "▁гэлээ",
        -8.506058692932129
      ],
      [
        "▁гэвэл",
        -8.507579803466797
      ],
      [
        "▁хэрэгжүүлж",
        -8.510589599609375
      ],
      [
        "▁Тэрээр",
        -8.51087760925293
      ],
      [
        "▁Үүнийг",
        -8.511053085327148
      ],
      [
        "▁оронд",
        -8.511082649230957
      ],
      [
        "▁голын",
        -8.511734962463379
      ],
      [
        "▁үзэл",
        -8.514177322387695
      ],
      [
        "гүйгээр",
        -8.514670372009277
      ],
      [
        "Х",
        -8.515131950378418
      ],
      [
        "▁яаж",
        -8.515934944152832
      ],
      [
        "▁шүүх",
        -8.518253326416016
      ],
      [
        "й",
        -8.519084930419922
      ],
      [
        "▁Улсад",
        -8.519092559814453
      ],
      [
        "▁үл",
        -8.521005630493164
      ],
      [
        "▁таалагдаж",
        -8.521684646606445
      ],
      [
        "▁бичгийн",
        -8.523226737976074
      ],
      [
        "▁бууруулах",
        -8.523261070251465
      ],
      [
        "▁байгууллагууд",
        -8.525931358337402
      ],
      [
        "▁тэргүүн",
        -8.529568672180176
      ],
      [
        "▁Төв",
        -8.531172752380371
      ],
      [
        "▁хяналтын",
        -8.532079696655273
      ],
      [
        "▁ганц",
        -8.5343017578125
      ],
      [
        "▁үнэн",
        -8.534842491149902
      ],
      [
        "▁эрхийг",
        -8.540237426757812
      ],
      [
        "▁бүрийн",
        -8.540436744689941
      ],
      [
        "▁сонгуульд",
        -8.541234970092773
      ],
      [
        "▁Хятадын",
        -8.544742584228516
      ],
      [
        "▁урьдчилан",
        -8.54616641998291
      ],
      [
        "▁цахилгаан",
        -8.546975135803223
      ],
      [
        "▁Өөрөөр",
        -8.547791481018066
      ],
      [
        "▁орох",
        -8.548027038574219
      ],
      [
        "▁харин",
        -8.550440788269043
      ],
      [
        "▁сан",
        -8.550535202026367
      ],
      [
        "▁нутагт",
        -8.552926063537598
      ],
      [
        "▁зүй",
        -8.554394721984863
      ],
      [
        "и",
        -8.5546875
      ],
      [
        "▁сэргийлэх",
        -8.555705070495605
      ],
      [
        "▁эхлээд",
        -8.557242393493652
      ],
      [
        "▁аваад",
        -8.558366775512695
      ],
      [
        "▁гарын",
        -8.558558464050293
      ],
      [
        "▁дор",
        -8.560819625854492
      ],
      [
        "▁амь",
        -8.560832977294922
      ],
      [
        "▁амжилттай",
        -8.562564849853516
      ],
      [
        "Г",
        -8.5645751953125
      ],
      [
        "▁Эдийн",
        -8.565062522888184
      ],
      [
        "▁яг",
        -8.56624698638916
      ],
      [
        "▁улмаас",
        -8.566536903381348
      ],
      [
        "▁ажлаа",
        -8.56753158569336
      ],
      [
        "▁хөдөө",
        -8.567610740661621
      ],
      [
        "▁нэгж",
        -8.57000732421875
      ],
      [
        "▁холбоо",
        -8.57351016998291
      ],
      [
        "▁алга",
        -8.579331398010254
      ],
      [
        "▁зөрчсөн",
        -8.580147743225098
      ],
      [
        "сэн",
        -8.580594062805176
      ],
      [
        "▁эрхтэй",
        -8.580612182617188
      ],
      [
        "▁дэмжиж",
        -8.580623626708984
      ],
      [
        "▁тонн",
        -8.58092975616455
      ],
      [
        "эн",
        -8.581451416015625
      ],
      [
        "▁ажилласан",
        -8.582059860229492
      ],
      [
        "vv",
        -8.58346176147461
      ],
      [
        "▁үзүүлэх",
        -8.58559513092041
      ],
      [
        "▁18",
        -8.587920188903809
      ],
      [
        "▁заасан",
        -8.59106731414795
      ],
      [
        "▁гэдгээ",
        -8.591293334960938
      ],
      [
        "▁тавьсан",
        -8.591893196105957
      ],
      [
        "▁судалгаа",
        -8.593616485595703
      ],
      [
        "▁хийгээрэй",
        -8.594252586364746
      ],
      [
        "▁боломжгүй",
        -8.594905853271484
      ],
      [
        "▁иргэдэд",
        -8.595965385437012
      ],
      [
        "▁бэлэн",
        -8.602591514587402
      ],
      [
        "▁кг",
        -8.604024887084961
      ],
      [
        "▁соёл",
        -8.605764389038086
      ],
      [
        "▁шатны",
        -8.60869312286377
      ],
      [
        "о",
        -8.608755111694336
      ],
      [
        "▁орохгүй",
        -8.609909057617188
      ],
      [
        "▁Түүний",
        -8.611563682556152
      ],
      [
        "▁бүхэн",
        -8.612088203430176
      ],
      [
        "▁өмнөөс",
        -8.616731643676758
      ],
      [
        "лаа",
        -8.61893367767334
      ],
      [
        "▁тавих",
        -8.619688034057617
      ],
      [
        "▁татвар",
        -8.620735168457031
      ],
      [
        "▁16",
        -8.621847152709961
      ],
      [
        "▁цагаан",
        -8.623220443725586
      ],
      [
        "▁зүйлийг",
        -8.624856948852539
      ],
      [
        "▁бизнес",
        -8.627402305603027
      ],
      [
        "▁хэсгийн",
        -8.630876541137695
      ],
      [
        "▁Р",
        -8.631562232971191
      ],
      [
        "▁амжилт",
        -8.632206916809082
      ],
      [
        "▁км",
        -8.632216453552246
      ],
      [
        "▁оролцох",
        -8.634920120239258
      ],
      [
        "▁суурь",
        -8.635567665100098
      ],
      [
        "▁багийн",
        -8.635973930358887
      ],
      [
        "▁авто",
        -8.6397123336792
      ],
      [
        "▁Эрүүл",
        -8.643911361694336
      ],
      [
        "▁хоол",
        -8.644346237182617
      ],
      [
        "▁түмэн",
        -8.646745681762695
      ],
      [
        "▁Хамгийн",
        -8.647315979003906
      ],
      [
        "өө",
        -8.647398948669434
      ],
      [
        "▁эцэг",
        -8.648290634155273
      ],
      [
        "▁25",
        -8.649908065795898
      ],
      [
        "▁ял",
        -8.650171279907227
      ],
      [
        "▁барилгын",
        -8.650583267211914
      ],
      [
        "▁Ардчилсан",
        -8.655829429626465
      ],
      [
        "▁орно",
        -8.656020164489746
      ],
      [
        "▁дээрээ",
        -8.656022071838379
      ],
      [
        "▁шилдэг",
        -8.656203269958496
      ],
      [
        "од",
        -8.657920837402344
      ],
      [
        "▁дэмжлэг",
        -8.658172607421875
      ],
      [
        "▁40",
        -8.65933609008789
      ],
      [
        "▁Эх",
        -8.659579277038574
      ],
      [
        "▁хийдэг",
        -8.660379409790039
      ],
      [
        "гаа",
        -8.661507606506348
      ],
      [
        "▁толгой",
        -8.663975715637207
      ],
      [
        "▁өөрийгөө",
        -8.664904594421387
      ],
      [
        "▁цагаас",
        -8.667510986328125
      ],
      [
        "▁хойд",
        -8.667811393737793
      ],
      [
        "үүд",
        -8.670981407165527
      ],
      [
        "▁сайжруулах",
        -8.672490119934082
      ],
      [
        "▁Миний",
        -8.673677444458008
      ],
      [
        "А",
        -8.675851821899414
      ],
      [
        "▁барилга",
        -8.678301811218262
      ],
      [
        "▁холбооны",
        -8.679240226745605
      ],
      [
        "▁оруулалт",
        -8.681414604187012
      ],
      [
        "▁орлого",
        -8.683390617370605
      ],
      [
        "▁талын",
        -8.683707237243652
      ],
      [
        "▁замаар",
        -8.684072494506836
      ],
      [
        "▁17",
        -8.689253807067871
      ],
      [
        "▁гэв",
        -8.689586639404297
      ],
      [
        "▁ухааны",
        -8.691319465637207
      ],
      [
        "▁хэлэлцэх",
        -8.691681861877441
      ],
      [
        "Б",
        -8.691800117492676
      ],
      [
        "▁хүрсэн",
        -8.692375183105469
      ],
      [
        "▁рүү",
        -8.69466781616211
      ],
      [
        "▁хэр",
        -8.696577072143555
      ],
      [
        "▁эхлэн",
        -8.697047233581543
      ],
      [
        "▁урт",
        -8.697656631469727
      ],
      [
        "▁мянга",
        -8.697683334350586
      ],
      [
        "▁бодит",
        -8.697797775268555
      ],
      [
        "лан",
        -8.698378562927246
      ],
      [
        "▁байгаагаа",
        -8.699515342712402
      ],
      [
        "▁ажиллагаанд",
        -8.700573921203613
      ],
      [
        "▁хэргийг",
        -8.701794624328613
      ],
      [
        "▁аялал",
        -8.70349407196045
      ],
      [
        "▁талаас",
        -8.704629898071289
      ],
      [
        "▁онцгой",
        -8.705208778381348
      ],
      [
        "▁боловсролын",
        -8.706400871276855
      ],
      [
        "▁ахуй",
        -8.706962585449219
      ],
      [
        "▁авдаг",
        -8.708877563476562
      ],
      [
        "▁газраар",
        -8.709224700927734
      ],
      [
        "▁13",
        -8.71048355102539
      ],
      [
        "▁хөгжил",
        -8.710596084594727
      ],
      [
        "▁хийгээд",
        -8.713090896606445
      ],
      [
        "▁60",
        -8.714797019958496
      ],
      [
        "▁мэдээллээ",
        -8.714924812316895
      ],
      [
        "▁бүтээн",
        -8.715171813964844
      ],
      [
        "▁холбогдуулан",
        -8.715394973754883
      ],
      [
        "▁худалдаа",
        -8.71554183959961
      ],
      [
        "▁газрыг",
        -8.7158784866333
      ],
      [
        "▁Тэгээд",
        -8.716858863830566
      ],
      [
        "▁сөрөг",
        -8.721508026123047
      ],
      [
        "▁кино",
        -8.724894523620605
      ],
      [
        "▁дүнд",
        -8.725227355957031
      ],
      [
        "!",
        -8.7265043258667
      ],
      [
        "▁нийтэд",
        -8.727435111999512
      ],
      [
        "Энхболд",
        -8.728233337402344
      ],
      [
        "▁бололтой",
        -8.73094367980957
      ],
      [
        "▁худалдааны",
        -8.731733322143555
      ],
      [
        "▁байдалд",
        -8.732073783874512
      ],
      [
        "▁ажилладаг",
        -8.732150077819824
      ],
      [
        "▁саналыг",
        -8.733034133911133
      ],
      [
        "Эрдэнэ",
        -8.733086585998535
      ],
      [
        "▁хэрэгт",
        -8.733442306518555
      ],
      [
        "▁тэмцэх",
        -8.73355484008789
      ],
      [
        "▁эмнэлгийн",
        -8.734058380126953
      ],
      [
        "гаар",
        -8.734413146972656
      ],
      [
        "▁түмний",
        -8.73508071899414
      ],
      [
        "чин",
        -8.735979080200195
      ],
      [
        "▁яамны",
        -8.737351417541504
      ],
      [
        "▁шалтгаан",
        -8.738187789916992
      ],
      [
        "▁жижиг",
        -8.73857593536377
      ],
      [
        "▁Азийн",
        -8.739514350891113
      ],
      [
        "▁гүйцэтгэх",
        -8.741100311279297
      ],
      [
        "▁ёсны",
        -8.7413969039917
      ],
      [
        "▁болохыг",
        -8.741691589355469
      ],
      [
        "ин",
        -8.74258804321289
      ],
      [
        "▁Тухайн",
        -8.743433952331543
      ],
      [
        "▁21",
        -8.747556686401367
      ],
      [
        "▁тусламж",
        -8.749714851379395
      ],
      [
        "▁авна",
        -8.750737190246582
      ],
      [
        "▁ашиглах",
        -8.751371383666992
      ],
      [
        "▁хүнсний",
        -8.754011154174805
      ],
      [
        "▁амьдарч",
        -8.756057739257812
      ],
      [
        "▁зургаан",
        -8.756314277648926
      ],
      [
        "▁хэзээ",
        -8.756915092468262
      ],
      [
        "▁тун",
        -8.759556770324707
      ],
      [
        "▁Шөнөдөө",
        -8.760525703430176
      ],
      [
        "долларын",
        -8.762042999267578
      ],
      [
        "▁сум",
        -8.765226364135742
      ],
      [
        "▁бүлгийн",
        -8.768054962158203
      ],
      [
        "▁яриа",
        -8.768389701843262
      ],
      [
        "▁үүнийг",
        -8.769383430480957
      ],
      [
        "▁сангийн",
        -8.770474433898926
      ],
      [
        "▁дээш",
        -8.77660846710205
      ],
      [
        "▁Тодруулбал",
        -8.776851654052734
      ],
      [
        "▁ном",
        -8.777379035949707
      ],
      [
        "▁бараг",
        -8.778895378112793
      ],
      [
        "▁иргэний",
        -8.78078556060791
      ],
      [
        "▁хүртэлх",
        -8.782550811767578
      ],
      [
        "жээ",
        -8.783032417297363
      ],
      [
        "▁хэмээх",
        -8.784096717834473
      ],
      [
        "▁гал",
        -8.785167694091797
      ],
      [
        "▁шинжлэх",
        -8.787137985229492
      ],
      [
        "▁татварын",
        -8.788427352905273
      ],
      [
        "▁Хэрэв",
        -8.789581298828125
      ],
      [
        "▁ихэнх",
        -8.790244102478027
      ],
      [
        "▁журмын",
        -8.791740417480469
      ],
      [
        "▁өглөө",
        -8.79321575164795
      ],
      [
        "ах",
        -8.79343032836914
      ],
      [
        "ав",
        -8.794827461242676
      ],
      [
        "▁машин",
        -8.799168586730957
      ],
      [
        "▁хэт",
        -8.80033016204834
      ],
      [
        "▁бүлийн",
        -8.800642967224121
      ],
      [
        "▁2012",
        -8.80102825164795
      ],
      [
        "▁нэгдүгээр",
        -8.801518440246582
      ],
      [
        "▁хандаж",
        -8.801694869995117
      ],
      [
        "▁байгаль",
        -8.804265022277832
      ],
      [
        "▁нөгөө",
        -8.80433464050293
      ],
      [
        "Бат",
        -8.804801940917969
      ],
      [
        "▁боломжийг",
        -8.805240631103516
      ],
      [
        "▁сурвалж",
        -8.806005477905273
      ],
      [
        "▁Япон",
        -8.808455467224121
      ],
      [
        "өөр",
        -8.808666229248047
      ],
      [
        "уудыг",
        -8.808960914611816
      ],
      [
        "▁амьдрал",
        -8.80990982055664
      ],
      [
        "▁хийнэ",
        -8.810806274414062
      ],
      [
        "▁ухаан",
        -8.810842514038086
      ],
      [
        "▁даатгалын",
        -8.81107234954834
      ],
      [
        "▁уулзалт",
        -8.811230659484863
      ],
      [
        "▁Гадаад",
        -8.81168270111084
      ],
      [
        "▁бүлэг",
        -8.81214714050293
      ],
      [
        "▁LIKE",
        -8.81235408782959
      ],
      [
        "▁спортын",
        -8.813267707824707
      ],
      [
        "▁турш",
        -8.813526153564453
      ],
      [
        "▁төрсөн",
        -8.814905166625977
      ],
      [
        "▁боловсрол",
        -8.814953804016113
      ],
      [
        "лах",
        -8.816204071044922
      ],
      [
        "▁бэлтгэл",
        -8.817045211791992
      ],
      [
        "▁болгосон",
        -8.817246437072754
      ],
      [
        "▁өвчин",
        -8.8196439743042
      ],
      [
        "▁энд",
        -8.822797775268555
      ],
      [
        "▁мэнд",
        -8.823502540588379
      ],
      [
        "▁байгуулалтын",
        -8.823596000671387
      ],
      [
        "▁нээлттэй",
        -8.824811935424805
      ],
      [
        "▁байхыг",
        -8.825284957885742
      ],
      [
        "▁хүчтэй",
        -8.825606346130371
      ],
      [
        "▁эдгээр",
        -8.827322006225586
      ],
      [
        "▁тэрбээр",
        -8.827492713928223
      ],
      [
        "▁эсэх",
        -8.828941345214844
      ],
      [
        "▁хэсэгт",
        -8.829305648803711
      ],
      [
        "▁үсэг",
        -8.829315185546875
      ],
      [
        "▁шийдвэрлэх",
        -8.830694198608398
      ],
      [
        "▁ёсоор",
        -8.833189964294434
      ],
      [
        "▁гадаадын",
        -8.835456848144531
      ],
      [
        "▁ажилд",
        -8.836910247802734
      ],
      [
        "▁гэдэгт",
        -8.838142395019531
      ],
      [
        "▁цас",
        -8.83899974822998
      ],
      [
        "▁2013",
        -8.839484214782715
      ],
      [
        "▁аргагүй",
        -8.840205192565918
      ],
      [
        "▁хоног",
        -8.840408325195312
      ],
      [
        "▁адил",
        -8.84086799621582
      ],
      [
        "▁боловсруулах",
        -8.841415405273438
      ],
      [
        "▁бүгд",
        -8.843473434448242
      ],
      [
        "▁яваа",
        -8.843696594238281
      ],
      [
        "▁усны",
        -8.84560775756836
      ],
      [
        "▁хурлын",
        -8.846020698547363
      ],
      [
        "▁шүүхийн",
        -8.847222328186035
      ],
      [
        "▁мөнгөн",
        -8.850086212158203
      ],
      [
        "▁тамирчин",
        -8.851349830627441
      ],
      [
        "▁дэлхий",
        -8.853326797485352
      ],
      [
        "▁шалгаж",
        -8.853941917419434
      ],
      [
        "▁1-",
        -8.854745864868164
      ],
      [
        "▁зүйтэй",
        -8.85599136352539
      ],
      [
        "▁ангийн",
        -8.856727600097656
      ],
      [
        "▁Ингэснээр",
        -8.8568754196167
      ],
      [
        "▁түвшинд",
        -8.857792854309082
      ],
      [
        "▁төвд",
        -8.857902526855469
      ],
      [
        "▁дүгнэлт",
        -8.859466552734375
      ],
      [
        "▁га",
        -8.860716819763184
      ],
      [
        "он",
        -8.860970497131348
      ],
      [
        "▁явуулах",
        -8.861971855163574
      ],
      [
        "▁ингэж",
        -8.863673210144043
      ],
      [
        "▁харилцан",
        -8.865459442138672
      ],
      [
        "▁гишүүдийн",
        -8.865521430969238
      ],
      [
        "▁Эдгээр",
        -8.866320610046387
      ],
      [
        "▁дотоод",
        -8.866678237915039
      ],
      [
        "▁яагаад",
        -8.866985321044922
      ],
      [
        "▁тод",
        -8.867488861083984
      ],
      [
        "▁айл",
        -8.867616653442383
      ],
      [
        "▁гомдол",
        -8.867952346801758
      ],
      [
        "▁зорилго",
        -8.868038177490234
      ],
      [
        "▁үзсэн",
        -8.869763374328613
      ],
      [
        "▁нөөц",
        -8.869952201843262
      ],
      [
        "доллар",
        -8.871764183044434
      ],
      [
        "▁бараа",
        -8.87583065032959
      ],
      [
        "▁байсныг",
        -8.877155303955078
      ],
      [
        "▁сууж",
        -8.877187728881836
      ],
      [
        "▁оруулсан",
        -8.877355575561523
      ],
      [
        "▁чиг",
        -8.877494812011719
      ],
      [
        "▁Хоёр",
        -8.87784481048584
      ],
      [
        "▁хатуу",
        -8.87804126739502
      ],
      [
        "▁хүргэж",
        -8.878989219665527
      ],
      [
        "▁70",
        -8.879626274108887
      ],
      [
        "▁зөвлөлийн",
        -8.879765510559082
      ],
      [
        "▁зээлд",
        -8.881291389465332
      ],
      [
        "▁нэлээд",
        -8.881536483764648
      ],
      [
        "▁Хятад",
        -8.882621765136719
      ],
      [
        "▁Оросын",
        -8.882895469665527
      ],
      [
        "▁очиж",
        -8.883630752563477
      ],
      [
        "▁хүүхдүүд",
        -8.8842134475708
      ],
      [
        "▁цалин",
        -8.885553359985352
      ],
      [
        "▁баталсан",
        -8.889636039733887
      ],
      [
        "▁найз",
        -8.889789581298828
      ],
      [
        "▁түүх",
        -8.89215087890625
      ],
      [
        "▁бүтээл",
        -8.893141746520996
      ],
      [
        "дэг",
        -8.894713401794434
      ],
      [
        "▁шударга",
        -8.895230293273926
      ],
      [
        "▁ирээд",
        -8.8971586227417
      ],
      [
        "▁ээж",
        -8.897257804870605
      ],
      [
        "▁эрхийн",
        -8.8978910446167
      ],
      [
        "▁давхар",
        -8.89836311340332
      ],
      [
        "▁чанар",
        -8.900458335876465
      ],
      [
        "▁хоногт",
        -8.903788566589355
      ],
      [
        "▁мэдэх",
        -8.904637336730957
      ],
      [
        "▁хэлэх",
        -8.9054594039917
      ],
      [
        "хээ",
        -8.905712127685547
      ],
      [
        "▁өдрүүдэд",
        -8.905817985534668
      ],
      [
        "▁сууцны",
        -8.907086372375488
      ],
      [
        "▁цэвэр",
        -8.907369613647461
      ],
      [
        "э",
        -8.907421112060547
      ],
      [
        "▁талаарх",
        -8.909187316894531
      ],
      [
        "▁эр",
        -8.90926742553711
      ],
      [
        "▁НҮБ",
        -8.910271644592285
      ],
      [
        "▁зүйлийн",
        -8.913374900817871
      ],
      [
        "▁шинж",
        -8.913541793823242
      ],
      [
        "▁бичихдээ",
        -8.914299011230469
      ],
      [
        "▁В",
        -8.91515827178955
      ],
      [
        "▁хуулиар",
        -8.916518211364746
      ],
      [
        "▁магадгүй",
        -8.917360305786133
      ],
      [
        "▁Үүнд",
        -8.917821884155273
      ],
      [
        "▁хуралдаанаар",
        -8.917831420898438
      ],
      [
        "▁мэдүүлсэн",
        -8.91817569732666
      ],
      [
        "М",
        -8.919678688049316
      ],
      [
        "▁бай",
        -8.92022705078125
      ],
      [
        "▁ур",
        -8.920860290527344
      ],
      [
        "▁үлдсэн",
        -8.921032905578613
      ],
      [
        "вал",
        -8.921224594116211
      ],
      [
        "▁Хүн",
        -8.922564506530762
      ],
      [
        "▁явдаг",
        -8.922947883605957
      ],
      [
        "▁Ямар",
        -8.924025535583496
      ],
      [
        "▁МАХН",
        -8.926313400268555
      ],
      [
        "▁ашигтай",
        -8.92779541015625
      ],
      [
        "▁өр",
        -8.928471565246582
      ],
      [
        "гээр",
        -8.928520202636719
      ],
      [
        "▁аливаа",
        -8.929908752441406
      ],
      [
        "▁намайг",
        -8.93048095703125
      ],
      [
        "▁сургалт",
        -8.931785583496094
      ],
      [
        "▁байгууллагад",
        -8.932231903076172
      ],
      [
        "▁үнэхээр",
        -8.933021545410156
      ],
      [
        "▁хоёрдугаар",
        -8.933834075927734
      ],
      [
        "▁надад",
        -8.933907508850098
      ],
      [
        "▁мах",
        -8.934013366699219
      ],
      [
        "▁хоорондын",
        -8.934015274047852
      ],
      [
        "▁м",
        -8.934375762939453
      ],
      [
        "▁оруулалтын",
        -8.934627532958984
      ],
      [
        "▁эхлэх",
        -8.934711456298828
      ],
      [
        "▁тогтоох",
        -8.936456680297852
      ],
      [
        "▁байнга",
        -8.937253952026367
      ],
      [
        "▁24",
        -8.94051742553711
      ],
      [
        "▁асан",
        -8.940947532653809
      ],
      [
        "өөс",
        -8.94167709350586
      ],
      [
        "▁чуулганы",
        -8.942301750183105
      ],
      [
        "▁анхаарал",
        -8.94323444366455
      ],
      [
        "▁нарыг",
        -8.944446563720703
      ],
      [
        "▁эзэн",
        -8.944510459899902
      ],
      [
        "▁хэвлэл",
        -8.944612503051758
      ],
      [
        "▁хөл",
        -8.945022583007812
      ],
      [
        "▁технологийн",
        -8.945405006408691
      ],
      [
        "▁тань",
        -8.945459365844727
      ],
      [
        "▁хаан",
        -8.945560455322266
      ],
      [
        "▁төдийгүй",
        -8.948312759399414
      ],
      [
        "▁талбайд",
        -8.951249122619629
      ],
      [
        "▁огт",
        -8.951818466186523
      ],
      [
        "▁ах",
        -8.952198028564453
      ],
      [
        "▁аймагт",
        -8.953557968139648
      ],
      [
        "▁яах",
        -8.954086303710938
      ],
      [
        "▁www",
        -8.954404830932617
      ],
      [
        "▁дотоодын",
        -8.955998420715332
      ],
      [
        "▁устгах",
        -8.956621170043945
      ],
      [
        "▁эргэн",
        -8.957496643066406
      ],
      [
        "▁танхимд",
        -8.9585599899292
      ],
      [
        "▁байхдаа",
        -8.95903205871582
      ],
      [
        "▁амьдрах",
        -8.959650993347168
      ],
      [
        "▁Сүүлийн",
        -8.959957122802734
      ],
      [
        "▁чадвар",
        -8.961790084838867
      ],
      [
        "▁хэцүү",
        -8.962525367736816
      ],
      [
        "▁зан",
        -8.96294116973877
      ],
      [
        "▁бороо",
        -8.963292121887207
      ],
      [
        "▁19",
        -8.964653015136719
      ],
      [
        "▁итгэл",
        -8.96526050567627
      ],
      [
        "ь",
        -8.966202735900879
      ],
      [
        "▁гэхээр",
        -8.968877792358398
      ],
      [
        "▁Сангийн",
        -8.969059944152832
      ],
      [
        "▁болзошгүй",
        -8.969820976257324
      ],
      [
        "▁хүлээхгүй",
        -8.970027923583984
      ],
      [
        "▁Хэрвээ",
        -8.970741271972656
      ],
      [
        "▁5-10",
        -8.971925735473633
      ],
      [
        "▁хүссэн",
        -8.97215461730957
      ],
      [
        "▁асуудалд",
        -8.972783088684082
      ],
      [
        "▁тэрээр",
        -8.973910331726074
      ],
      [
        "▁охин",
        -8.975556373596191
      ],
      [
        "▁сонирхолтой",
        -8.976068496704102
      ],
      [
        "▁чадсан",
        -8.976746559143066
      ],
      [
        "▁Нийгмийн",
        -8.976923942565918
      ],
      [
        "▁Гэр",
        -8.978382110595703
      ],
      [
        "▁заавал",
        -8.97876262664795
      ],
      [
        "Уул",
        -8.9796142578125
      ],
      [
        "▁Японы",
        -8.979713439941406
      ],
      [
        "▁ногоон",
        -8.980281829833984
      ],
      [
        "▁алдсан",
        -8.981250762939453
      ],
      [
        "▁Таны",
        -8.983268737792969
      ],
      [
        "▁мөнгийг",
        -8.983619689941406
      ],
      [
        "▁бөхийн",
        -8.984338760375977
      ],
      [
        "▁бүл",
        -8.984405517578125
      ],
      [
        "▁талд",
        -8.98527717590332
      ],
      [
        "▁уур",
        -8.985888481140137
      ],
      [
        "▁үедээ",
        -8.98918628692627
      ],
      [
        "▁сайт",
        -8.989301681518555
      ],
      [
        "▁аав",
        -8.991246223449707
      ],
      [
        "▁сургуульд",
        -8.991728782653809
      ],
      [
        "▁техник",
        -8.991912841796875
      ],
      [
        "▁Зарим",
        -8.992960929870605
      ],
      [
        "▁үйлчилгээг",
        -8.993099212646484
      ],
      [
        "▁Европын",
        -8.993789672851562
      ],
      [
        "▁тэмцээнд",
        -8.994284629821777
      ],
      [
        "▁захиргааны",
        -8.995281219482422
      ],
      [
        "▁хэллээ",
        -8.995962142944336
      ],
      [
        "▁бүтээгдэхүүний",
        -8.99685001373291
      ],
      [
        "▁батлах",
        -8.996880531311035
      ],
      [
        "▁бидэнд",
        -8.997785568237305
      ],
      [
        "▁үнэтэй",
        -8.999137878417969
      ],
      [
        "▁эм",
        -9.000164985656738
      ],
      [
        "▁ийнхүү",
        -9.000244140625
      ],
      [
        "▁хариу",
        -9.000832557678223
      ],
      [
        "чид",
        -9.001081466674805
      ],
      [
        "▁сонин",
        -9.001225471496582
      ],
      [
        "▁өссөн",
        -9.002300262451172
      ],
      [
        "▁дараагийн",
        -9.003250122070312
      ],
      [
        "▁хөтөлбөрийн",
        -9.00417423248291
      ],
      [
        "▁төсөв",
        -9.00440502166748
      ],
      [
        "▁хуралдаан",
        -9.00508975982666
      ],
      [
        "▁хэдий",
        -9.00566577911377
      ],
      [
        "▁хэрэгсэл",
        -9.006718635559082
      ],
      [
        "▁хөрөнгийн",
        -9.008930206298828
      ],
      [
        "▁ашиглаж",
        -9.008935928344727
      ],
      [
        "▁өөрсдөө",
        -9.0090970993042
      ],
      [
        "▁хугацааны",
        -9.009346008300781
      ],
      [
        "▁Иймд",
        -9.012093544006348
      ],
      [
        "▁өөрсдийн",
        -9.012353897094727
      ],
      [
        "▁нөлөө",
        -9.01348876953125
      ],
      [
        "нээс",
        -9.013751983642578
      ],
      [
        "▁Яагаад",
        -9.015135765075684
      ],
      [
        "▁сургалтын",
        -9.015259742736816
      ],
      [
        "▁гурав",
        -9.015620231628418
      ],
      [
        "▁үйлдэл",
        -9.015853881835938
      ],
      [
        "2",
        -9.017023086547852
      ],
      [
        "▁амын",
        -9.017143249511719
      ],
      [
        "▁хөтөлбөрийг",
        -9.01735782623291
      ],
      [
        "анд",
        -9.018287658691406
      ],
      [
        "▁нийгэм",
        -9.01933765411377
      ],
      [
        "▁нийслэл",
        -9.019510269165039
      ],
      [
        "▁хойноос",
        -9.020017623901367
      ],
      [
        "▁байгалийн",
        -9.020417213439941
      ],
      [
        "▁тохиолдол",
        -9.02052116394043
      ],
      [
        "▁үзүүлж",
        -9.021331787109375
      ],
      [
        "▁Шинэ",
        -9.021645545959473
      ],
      [
        "▁үзэх",
        -9.021905899047852
      ],
      [
        "▁Сүхбаатар",
        -9.022189140319824
      ],
      [
        "▁Ажлын",
        -9.022229194641113
      ],
      [
        "▁минут",
        -9.022244453430176
      ],
      [
        "▁оршин",
        -9.02244758605957
      ],
      [
        "▁ажилтан",
        -9.023237228393555
      ],
      [
        "▁төлөөлөгч",
        -9.024147033691406
      ],
      [
        "▁тогтоолын",
        -9.024412155151367
      ],
      [
        "▁медаль",
        -9.025189399719238
      ],
      [
        "▁төлбөр",
        -9.025297164916992
      ],
      [
        "▁учиртай",
        -9.025558471679688
      ],
      [
        "▁80",
        -9.028024673461914
      ],
      [
        "▁байгаагүй",
        -9.028428077697754
      ],
      [
        "▁долоон",
        -9.028534889221191
      ],
      [
        "▁шийдвэрийг",
        -9.029494285583496
      ],
      [
        "▁жишээ",
        -9.029878616333008
      ],
      [
        "сон",
        -9.029899597167969
      ],
      [
        "аараа",
        -9.030017852783203
      ],
      [
        "▁олны",
        -9.030269622802734
      ],
      [
        "▁наадмын",
        -9.031391143798828
      ],
      [
        "▁зөрчил",
        -9.03231143951416
      ],
      [
        "▁бөх",
        -9.035311698913574
      ],
      [
        "доо",
        -9.035393714904785
      ],
      [
        "▁сэтгэгдэлд",
        -9.035703659057617
      ],
      [
        "▁төсөвт",
        -9.036147117614746
      ],
      [
        "гээ",
        -9.037850379943848
      ],
      [
        "▁0",
        -9.039097785949707
      ],
      [
        "▁бүү",
        -9.03958511352539
      ],
      [
        "▁тав",
        -9.040002822875977
      ],
      [
        "▁Хан",
        -9.040806770324707
      ],
      [
        "▁Ардын",
        -9.040868759155273
      ],
      [
        "▁дамжуулан",
        -9.041966438293457
      ],
      [
        "▁мэдэхгүй",
        -9.042410850524902
      ],
      [
        "▁ерөнхийлөгч",
        -9.043044090270996
      ],
      [
        "ар",
        -9.045125007629395
      ],
      [
        "ил",
        -9.047353744506836
      ],
      [
        "▁өгнө",
        -9.048370361328125
      ],
      [
        "▁нэмэгдэж",
        -9.048441886901855
      ],
      [
        "▁амьдралын",
        -9.051276206970215
      ],
      [
        "▁б",
        -9.05157470703125
      ],
      [
        "е",
        -9.052680969238281
      ],
      [
        "▁ихээхэн",
        -9.05281925201416
      ],
      [
        "▁эцсийн",
        -9.053947448730469
      ],
      [
        "▁Уншигчдын",
        -9.055933952331543
      ],
      [
        "▁т",
        -9.057055473327637
      ],
      [
        "▁ойр",
        -9.057987213134766
      ],
      [
        "▁судалгааны",
        -9.061131477355957
      ],
      [
        "▁хэрэггүй",
        -9.061284065246582
      ],
      [
        "▁ажиллана",
        -9.061661720275879
      ],
      [
        "▁нэн",
        -9.062978744506836
      ],
      [
        "▁баярлалаа",
        -9.064229965209961
      ],
      [
        "▁нөхөн",
        -9.067893028259277
      ],
      [
        "▁хурдан",
        -9.068150520324707
      ],
      [
        "▁дараах",
        -9.068342208862305
      ],
      [
        "▁6-11",
        -9.068656921386719
      ],
      [
        "▁чиглэлийн",
        -9.068689346313477
      ],
      [
        "▁анхаарч",
        -9.06872272491455
      ],
      [
        "e",
        -9.069554328918457
      ],
      [
        "▁харилцааны",
        -9.07161808013916
      ],
      [
        "▁нууц",
        -9.071711540222168
      ],
      [
        "▁the",
        -9.072012901306152
      ],
      [
        "▁хөдөлмөр",
        -9.072021484375
      ],
      [
        "▁аймгуудын",
        -9.072258949279785
      ],
      [
        "▁Тамгын",
        -9.072803497314453
      ],
      [
        "▁Онцгой",
        -9.072968482971191
      ],
      [
        "▁урлагийн",
        -9.073143005371094
      ],
      [
        "▁орчны",
        -9.073585510253906
      ],
      [
        "▁дүр",
        -9.07385540008545
      ],
      [
        "▁мод",
        -9.073905944824219
      ],
      [
        "▁дуртай",
        -9.077889442443848
      ],
      [
        "▁үздэг",
        -9.078681945800781
      ],
      [
        "▁удирдах",
        -9.079846382141113
      ],
      [
        "▁тоглолт",
        -9.080033302307129
      ],
      [
        "5",
        -9.080328941345215
      ],
      [
        "▁гуравдугаар",
        -9.082223892211914
      ],
      [
        "▁бүрт",
        -9.083710670471191
      ],
      [
        "▁нарт",
        -9.085010528564453
      ],
      [
        "хэн",
        -9.085416793823242
      ],
      [
        "▁гэжээ",
        -9.085787773132324
      ],
      [
        "▁хүмүүст",
        -9.089425086975098
      ],
      [
        "▁төсөлд",
        -9.091242790222168
      ],
      [
        "▁200",
        -9.091569900512695
      ],
      [
        "▁аа",
        -9.09227466583252
      ],
      [
        "▁харах",
        -9.093650817871094
      ],
      [
        "▁монголчууд",
        -9.095013618469238
      ],
      [
        "ээд",
        -9.095616340637207
      ],
      [
        "эл",
        -9.095766067504883
      ],
      [
        "▁д",
        -9.097268104553223
      ],
      [
        "▁К",
        -9.098888397216797
      ],
      [
        "▁зардал",
        -9.099373817443848
      ],
      [
        "▁компаниуд",
        -9.100247383117676
      ],
      [
        "▁барьсан",
        -9.101835250854492
      ],
      [
        "▁шийдэх",
        -9.102395057678223
      ],
      [
        "▁хэлэлцэж",
        -9.103059768676758
      ],
      [
        "▁харилцах",
        -9.103200912475586
      ],
      [
        "▁найман",
        -9.103206634521484
      ],
      [
        "▁байранд",
        -9.103360176086426
      ],
      [
        "▁хэрэглэх",
        -9.103498458862305
      ],
      [
        "▁Сонгуулийн",
        -9.104248046875
      ],
      [
        "▁түүнд",
        -9.104999542236328
      ],
      [
        "▁хэлэлцүүлэг",
        -9.105422019958496
      ],
      [
        "▁үйлдвэрлэл",
        -9.105655670166016
      ],
      [
        "▁чадах",
        -9.106230735778809
      ],
      [
        "▁шалгалт",
        -9.107701301574707
      ],
      [
        "▁иргэдийг",
        -9.107755661010742
      ],
      [
        "▁хэлтсийн",
        -9.108017921447754
      ],
      [
        "▁ойлгож",
        -9.108246803283691
      ],
      [
        "▁татах",
        -9.108327865600586
      ],
      [
        "▁НУТГААР",
        -9.108726501464844
      ],
      [
        "▁Эрүүгийн",
        -9.108744621276855
      ],
      [
        "▁мэдлэг",
        -9.108979225158691
      ],
      [
        "▁хамтарч",
        -9.109692573547363
      ],
      [
        "▁Хөгжлийн",
        -9.110074996948242
      ],
      [
        "▁удирдлагууд",
        -9.110721588134766
      ],
      [
        "▁эв",
        -9.112088203430176
      ],
      [
        "▁Элчин",
        -9.112930297851562
      ],
      [
        "▁22",
        -9.113340377807617
      ],
      [
        "▁халуун",
        -9.114448547363281
      ],
      [
        "▁таатай",
        -9.114502906799316
      ],
      [
        "▁чөлөөт",
        -9.116303443908691
      ],
      [
        "▁тоног",
        -9.11756706237793
      ],
      [
        "▁тос",
        -9.1176176071167
      ],
      [
        "▁улаан",
        -9.118234634399414
      ],
      [
        "▁нэмж",
        -9.11886978149414
      ],
      [
        "▁соёлын",
        -9.120963096618652
      ],
      [
        "▁зориулсан",
        -9.121896743774414
      ],
      [
        "▁г",
        -9.121993064880371
      ],
      [
        "▁давуу",
        -9.122374534606934
      ],
      [
        "▁нүүрс",
        -9.1232271194458
      ],
      [
        "▁өгдөг",
        -9.124985694885254
      ],
      [
        "▁бүрдүүлэх",
        -9.125008583068848
      ],
      [
        "▁v",
        -9.125293731689453
      ],
      [
        "▁сав",
        -9.125895500183105
      ],
      [
        "▁залуус",
        -9.127224922180176
      ],
      [
        "▁хийхэд",
        -9.127362251281738
      ],
      [
        "▁байхаар",
        -9.128194808959961
      ],
      [
        "▁амиа",
        -9.128239631652832
      ],
      [
        "▁оюутан",
        -9.1285400390625
      ],
      [
        "▁бүтэн",
        -9.128558158874512
      ],
      [
        "▁АЙМГУУДЫ",
        -9.129097938537598
      ],
      [
        "▁Хөвсгөл",
        -9.129894256591797
      ],
      [
        "▁уулзаж",
        -9.132946968078613
      ],
      [
        "З",
        -9.13306713104248
      ],
      [
        "▁АТГ",
        -9.13338851928711
      ],
      [
        "▁ар",
        -9.134102821350098
      ],
      [
        "▁мөнгөний",
        -9.135355949401855
      ],
      [
        "▁орчинд",
        -9.135475158691406
      ],
      [
        "гаас",
        -9.135534286499023
      ],
      [
        "▁шуурга",
        -9.136137962341309
      ],
      [
        "▁өчигдөр",
        -9.136643409729004
      ],
      [
        "нэ",
        -9.136987686157227
      ],
      [
        "▁И",
        -9.137009620666504
      ],
      [
        "▁удаан",
        -9.138073921203613
      ],
      [
        "▁үүднээс",
        -9.13845443725586
      ],
      [
        "▁шуурхай",
        -9.138792037963867
      ],
      [
        "1",
        -9.139267921447754
      ],
      [
        "▁жилүүдэд",
        -9.139628410339355
      ],
      [
        "▁өнөөгийн",
        -9.140022277832031
      ],
      [
        "Би",
        -9.140374183654785
      ],
      [
        "чих",
        -9.140689849853516
      ],
      [
        "▁хүмүүсийг",
        -9.141106605529785
      ],
      [
        "▁хөдөлмөрийн",
        -9.142364501953125
      ],
      [
        "▁үнэт",
        -9.142828941345215
      ],
      [
        "▁төрөл",
        -9.14284896850586
      ],
      [
        "лээ",
        -9.143630027770996
      ],
      [
        "▁өөртөө",
        -9.144468307495117
      ],
      [
        "000",
        -9.14505672454834
      ],
      [
        "▁хариуцсан",
        -9.146197319030762
      ],
      [
        "▁харахад",
        -9.146300315856934
      ],
      [
        "▁хангаж",
        -9.146483421325684
      ],
      [
        "▁ой",
        -9.146671295166016
      ],
      [
        "▁хорих",
        -9.146721839904785
      ],
      [
        "▁татаж",
        -9.147534370422363
      ],
      [
        "▁Солонгосын",
        -9.148445129394531
      ],
      [
        "▁27",
        -9.148797988891602
      ],
      [
        "▁нүүрсний",
        -9.149596214294434
      ],
      [
        "▁мэдэгдсэн",
        -9.149760246276855
      ],
      [
        "▁эерэг",
        -9.149856567382812
      ],
      [
        "▁ханш",
        -9.150991439819336
      ],
      [
        "▁эхэлж",
        -9.152398109436035
      ],
      [
        "▁сонгууль",
        -9.153158187866211
      ],
      [
        "▁төлөөлөл",
        -9.154200553894043
      ],
      [
        "▁хорооллын",
        -9.154455184936523
      ],
      [
        "▁өнөөдрийн",
        -9.154876708984375
      ],
      [
        "▁шар",
        -9.155338287353516
      ],
      [
        "▁уулархаг",
        -9.156476974487305
      ],
      [
        "▁хэвлэлийн",
        -9.157106399536133
      ],
      [
        "▁ярих",
        -9.157578468322754
      ],
      [
        "▁Түүнээс",
        -9.157588958740234
      ],
      [
        "аг",
        -9.158514022827148
      ],
      [
        "▁асар",
        -9.158548355102539
      ],
      [
        "▁журам",
        -9.158695220947266
      ],
      [
        "▁хор",
        -9.159120559692383
      ],
      [
        "▁дүү",
        -9.159637451171875
      ],
      [
        "тайгаа",
        -9.160435676574707
      ],
      [
        "▁хагас",
        -9.161602973937988
      ],
      [
        "▁төлөвлөж",
        -9.162995338439941
      ],
      [
        "аж",
        -9.163863182067871
      ],
      [
        "▁хил",
        -9.164419174194336
      ],
      [
        "▁цэцэрлэг",
        -9.165375709533691
      ],
      [
        "▁чадна",
        -9.165994644165039
      ],
      [
        "▁хувцас",
        -9.166519165039062
      ],
      [
        "▁боддог",
        -9.166694641113281
      ],
      [
        "▁орнуудын",
        -9.16682243347168
      ],
      [
        "▁биеийн",
        -9.16796588897705
      ],
      [
        "Ц",
        -9.168954849243164
      ],
      [
        "▁зорилготой",
        -9.169304847717285
      ],
      [
        "ов",
        -9.169825553894043
      ],
      [
        "▁Танд",
        -9.170445442199707
      ],
      [
        "▁с",
        -9.170710563659668
      ],
      [
        "Ж",
        -9.172608375549316
      ],
      [
        "▁даргаар",
        -9.173040390014648
      ],
      [
        "▁хур",
        -9.173922538757324
      ],
      [
        "▁бүхнийг",
        -9.174041748046875
      ],
      [
        "▁ашиглалтад",
        -9.174118995666504
      ],
      [
        "▁төлөх",
        -9.174649238586426
      ],
      [
        "▁хамтарсан",
        -9.175798416137695
      ],
      [
        "▁янз",
        -9.175843238830566
      ],
      [
        "▁тэмцээн",
        -9.176427841186523
      ],
      [
        "▁ээлжит",
        -9.178218841552734
      ],
      [
        "▁жуулчлалын",
        -9.178946495056152
      ],
      [
        "▁БНСУ",
        -9.179396629333496
      ],
      [
        "ал",
        -9.179621696472168
      ],
      [
        "▁а",
        -9.181120872497559
      ],
      [
        "▁энгийн",
        -9.181313514709473
      ],
      [
        "▁Мэдээж",
        -9.181722640991211
      ],
      [
        "▁удирдлага",
        -9.184306144714355
      ],
      [
        "▁өмнөд",
        -9.186759948730469
      ],
      [
        "▁сууц",
        -9.186813354492188
      ],
      [
        "▁з",
        -9.189545631408691
      ],
      [
        "▁орлогч",
        -9.18979263305664
      ],
      [
        "▁бизнесийн",
        -9.190107345581055
      ],
      [
        "▁бүтэц",
        -9.190526008605957
      ],
      [
        "В",
        -9.19105052947998
      ],
      [
        "▁тогтоосон",
        -9.19141960144043
      ],
      [
        "лэх",
        -9.192089080810547
      ],
      [
        "▁1.",
        -9.192131042480469
      ],
      [
        "▁холбогдолтой",
        -9.192477226257324
      ],
      [
        "▁ТА",
        -9.19255256652832
      ],
      [
        "▁хол",
        -9.192838668823242
      ],
      [
        "▁ашгийг",
        -9.193012237548828
      ],
      [
        "▁жүжигчин",
        -9.194353103637695
      ],
      [
        "▁Чингис",
        -9.194737434387207
      ],
      [
        "▁өнгө",
        -9.195028305053711
      ],
      [
        "▁өөрийнхөө",
        -9.195282936096191
      ],
      [
        "▁зөвлөх",
        -9.195540428161621
      ],
      [
        "▁нэртэй",
        -9.196061134338379
      ],
      [
        "▁жолооч",
        -9.196145057678223
      ],
      [
        "▁зохицуулах",
        -9.19615364074707
      ],
      [
        "▁асуулт",
        -9.196441650390625
      ],
      [
        "▁хайр",
        -9.196883201599121
      ],
      [
        "лаад",
        -9.197331428527832
      ],
      [
        "▁удирдлагын",
        -9.197890281677246
      ],
      [
        "▁эмнэлэг",
        -9.19906997680664
      ],
      [
        "▁2.",
        -9.199542045593262
      ],
      [
        "▁талбай",
        -9.199772834777832
      ],
      [
        "Л",
        -9.200139999389648
      ],
      [
        "▁Тэдний",
        -9.200281143188477
      ],
      [
        "▁гардаг",
        -9.200799942016602
      ],
      [
        "▁дэлхийд",
        -9.201681137084961
      ],
      [
        "▁Хэвлэл",
        -9.201842308044434
      ],
      [
        "▁эрс",
        -9.202174186706543
      ],
      [
        "▁эргэж",
        -9.204924583435059
      ],
      [
        "▁Хүний",
        -9.205184936523438
      ],
      [
        "▁байгуулалт",
        -9.206130981445312
      ],
      [
        "▁чадаагүй",
        -9.206586837768555
      ],
      [
        "▁замыг",
        -9.20907974243164
      ],
      [
        "▁шагнал",
        -9.209266662597656
      ],
      [
        "▁хүсч",
        -9.210430145263672
      ],
      [
        "▁заалт",
        -9.210514068603516
      ],
      [
        "▁тусгасан",
        -9.21090030670166
      ],
      [
        "▁хий",
        -9.211150169372559
      ],
      [
        "▁идэвхтэй",
        -9.211652755737305
      ],
      [
        "▁суух",
        -9.212604522705078
      ],
      [
        "▁түүхий",
        -9.212799072265625
      ],
      [
        "▁суртахууны",
        -9.213669776916504
      ],
      [
        "▁Баянзүрх",
        -9.216696739196777
      ],
      [
        "▁дүүрэг",
        -9.217949867248535
      ],
      [
        "▁сул",
        -9.218713760375977
      ],
      [
        "▁чиглэл",
        -9.218843460083008
      ],
      [
        "▁бэрхшээлтэй",
        -9.219209671020508
      ],
      [
        "▁Цагдаагийн",
        -9.219512939453125
      ],
      [
        "▁тэмдэг",
        -9.219882011413574
      ],
      [
        "▁хүргэх",
        -9.220202445983887
      ],
      [
        "▁анги",
        -9.220213890075684
      ],
      [
        "уудын",
        -9.220565795898438
      ],
      [
        "ор",
        -9.22104263305664
      ],
      [
        "▁хүсэл",
        -9.22184944152832
      ],
      [
        "▁хороонд",
        -9.222046852111816
      ],
      [
        "▁улмаар",
        -9.223562240600586
      ],
      [
        "▁баялаг",
        -9.223607063293457
      ],
      [
        "лэн",
        -9.223637580871582
      ],
      [
        "▁одоогийн",
        -9.223801612854004
      ],
      [
        "▁алт",
        -9.223907470703125
      ],
      [
        "ээрээ",
        -9.224897384643555
      ],
      [
        "лж",
        -9.225976943969727
      ],
      [
        "▁хөтөлбөрт",
        -9.226030349731445
      ],
      [
        "▁ярьсан",
        -9.226343154907227
      ],
      [
        "▁23",
        -9.226648330688477
      ],
      [
        "▁Яг",
        -9.227021217346191
      ],
      [
        "▁гараад",
        -9.2284517288208
      ],
      [
        "▁технологи",
        -9.228729248046875
      ],
      [
        "▁шигшээ",
        -9.228808403015137
      ],
      [
        "▁байгуулагдсан",
        -9.22929573059082
      ],
      [
        "▁дүнтэй",
        -9.229839324951172
      ],
      [
        "▁онцлог",
        -9.23022747039795
      ],
      [
        "▁эрэгтэй",
        -9.232583999633789
      ],
      [
        "▁нийгэмд",
        -9.233134269714355
      ],
      [
        "▁зочид",
        -9.234049797058105
      ],
      [
        "▁зүгээр",
        -9.234353065490723
      ],
      [
        "▁богино",
        -9.235177993774414
      ],
      [
        "▁наадам",
        -9.23537826538086
      ],
      [
        "▁туршлага",
        -9.235738754272461
      ],
      [
        "▁олгож",
        -9.236169815063477
      ],
      [
        "▁гэрэл",
        -9.237746238708496
      ],
      [
        "▁мэдэж",
        -9.238092422485352
      ],
      [
        "▁арван",
        -9.238974571228027
      ],
      [
        "▁зөвшөөрөл",
        -9.239214897155762
      ],
      [
        "▁хэмжээгээр",
        -9.239225387573242
      ],
      [
        "▁цагдаа",
        -9.239319801330566
      ],
      [
        "▁явна",
        -9.239556312561035
      ],
      [
        "▁эрхэм",
        -9.240180015563965
      ],
      [
        "▁админ",
        -9.24231243133545
      ],
      [
        "▁элдэв",
        -9.242366790771484
      ],
      [
        "▁ширхэг",
        -9.242768287658691
      ],
      [
        "▁шинжилгээний",
        -9.244366645812988
      ],
      [
        "▁төгрөгийг",
        -9.244559288024902
      ],
      [
        "ам",
        -9.244614601135254
      ],
      [
        "▁Ийнхүү",
        -9.245503425598145
      ],
      [
        "▁хаана",
        -9.245784759521484
      ],
      [
        "▁тайлбар",
        -9.245963096618652
      ],
      [
        "▁Бас",
        -9.246301651000977
      ],
      [
        "▁Монголчууд",
        -9.247153282165527
      ],
      [
        "▁нөхцөлд",
        -9.24782943725586
      ],
      [
        "▁Ази",
        -9.248003005981445
      ],
      [
        "y",
        -9.24837875366211
      ],
      [
        "▁ажиллагаагаа",
        -9.249855995178223
      ],
      [
        "эх",
        -9.250234603881836
      ],
      [
        "▁хүрэх",
        -9.250480651855469
      ],
      [
        "саар",
        -9.250811576843262
      ],
      [
        "▁500",
        -9.251358985900879
      ],
      [
        "▁бүсийн",
        -9.25282096862793
      ],
      [
        "▁чанартай",
        -9.252971649169922
      ],
      [
        "▁90",
        -9.253393173217773
      ],
      [
        "▁ш",
        -9.253697395324707
      ],
      [
        "▁мэднэ",
        -9.25381851196289
      ],
      [
        "▁морь",
        -9.254118919372559
      ],
      [
        "3",
        -9.257678985595703
      ],
      [
        "▁хуралдаанд",
        -9.258342742919922
      ],
      [
        "▁СОНИН",
        -9.259132385253906
      ],
      [
        "▁хэлэхэд",
        -9.259347915649414
      ],
      [
        "▁алдаа",
        -9.260746002197266
      ],
      [
        "▁хэвээр",
        -9.262165069580078
      ],
      [
        "▁хүрэл",
        -9.264039039611816
      ],
      [
        "▁номын",
        -9.264421463012695
      ],
      [
        "▁ӨДРИЙН",
        -9.264885902404785
      ],
      [
        "▁Уул",
        -9.26551628112793
      ],
      [
        "▁зэрэгцээ",
        -9.266106605529785
      ],
      [
        "▁Төсвийн",
        -9.266668319702148
      ],
      [
        "▁дэвшигч",
        -9.26681137084961
      ],
      [
        "▁Байнгын",
        -9.267597198486328
      ],
      [
        "▁зөвлөл",
        -9.267624855041504
      ],
      [
        "▁цэрэг",
        -9.268080711364746
      ],
      [
        "▁бэлтгэх",
        -9.269755363464355
      ],
      [
        "▁зуун",
        -9.270777702331543
      ],
      [
        "▁бусаар",
        -9.272140502929688
      ],
      [
        "▁оноо",
        -9.273154258728027
      ],
      [
        "▁байгууллагаас",
        -9.275716781616211
      ],
      [
        "▁засагт",
        -9.275858879089355
      ],
      [
        "▁хэрэглэж",
        -9.276631355285645
      ],
      [
        "но",
        -9.276959419250488
      ],
      [
        "ас",
        -9.277565956115723
      ],
      [
        "▁3.",
        -9.277761459350586
      ],
      [
        "▁ор",
        -9.280370712280273
      ],
      [
        "▁явцад",
        -9.281193733215332
      ],
      [
        "▁нүүр",
        -9.282426834106445
      ],
      [
        "▁ойн",
        -9.283203125
      ],
      [
        "▁тэнд",
        -9.283404350280762
      ],
      [
        "▁өсөлт",
        -9.284187316894531
      ],
      [
        "▁хэрэгжиж",
        -9.284619331359863
      ],
      [
        "▁туслах",
        -9.285383224487305
      ],
      [
        "▁хуралд",
        -9.28551197052002
      ],
      [
        "▁тунадас",
        -9.287178039550781
      ],
      [
        "▁ихтэй",
        -9.288492202758789
      ],
      [
        "▁худалдаж",
        -9.288887023925781
      ],
      [
        "▁чиглэлд",
        -9.289770126342773
      ],
      [
        "▁АНХААРУУЛГА",
        -9.29051399230957
      ],
      [
        "▁уурхай",
        -9.291184425354004
      ],
      [
        "▁зэргийг",
        -9.292694091796875
      ],
      [
        "▁систем",
        -9.293622016906738
      ],
      [
        "▁тушаал",
        -9.29470443725586
      ],
      [
        "▁эрхлэх",
        -9.295536041259766
      ],
      [
        "▁хангалттай",
        -9.295721054077148
      ],
      [
        "▁Байгаль",
        -9.29648494720459
      ],
      [
        "▁хувьтай",
        -9.296814918518066
      ],
      [
        "▁дүнг",
        -9.296928405761719
      ],
      [
        "▁ярьдаг",
        -9.297279357910156
      ],
      [
        "▁бодлогыг",
        -9.297672271728516
      ],
      [
        "▁алтан",
        -9.297727584838867
      ],
      [
        "б",
        -9.29814624786377
      ],
      [
        "▁ороод",
        -9.298337936401367
      ],
      [
        "▁жинхэнэ",
        -9.298684120178223
      ],
      [
        "▁шалгах",
        -9.299870491027832
      ],
      [
        "▁түүнээс",
        -9.300496101379395
      ],
      [
        "▁тухайд",
        -9.300766944885254
      ],
      [
        "▁үргэлж",
        -9.301738739013672
      ],
      [
        "Баттулга",
        -9.301985740661621
      ],
      [
        "▁наяд",
        -9.303654670715332
      ],
      [
        "▁хэсгийг",
        -9.304219245910645
      ],
      [
        "▁үүлтэй",
        -9.304585456848145
      ],
      [
        "▁зохисгүй",
        -9.30729866027832
      ],
      [
        "▁Бага",
        -9.30835247039795
      ],
      [
        "▁хэвийн",
        -9.3098726272583
      ],
      [
        "▁хүндэтгэнэ",
        -9.310925483703613
      ],
      [
        "▁Орос",
        -9.311748504638672
      ],
      [
        "▁илэрхийлж",
        -9.312134742736816
      ],
      [
        "▁яваад",
        -9.313438415527344
      ],
      [
        "аасаа",
        -9.3137845993042
      ],
      [
        "▁сараас",
        -9.31419849395752
      ],
      [
        "▁нэрийг",
        -9.314717292785645
      ],
      [
        "▁хязгаарласан",
        -9.315020561218262
      ],
      [
        "▁урд",
        -9.316292762756348
      ],
      [
        "▁Хүүхдийн",
        -9.316313743591309
      ],
      [
        "▁боловсруулж",
        -9.316922187805176
      ],
      [
        "▁Like",
        -9.318632125854492
      ],
      [
        "▁түүхэн",
        -9.318686485290527
      ],
      [
        "▁хог",
        -9.31969928741455
      ],
      [
        "▁үүссэн",
        -9.320964813232422
      ],
      [
        "▁шат",
        -9.322404861450195
      ],
      [
        "▁мэргэжилтнүүд",
        -9.323502540588379
      ],
      [
        "D",
        -9.323513984680176
      ],
      [
        "▁холбоотойгоор",
        -9.32479190826416
      ],
      [
        "▁олгосон",
        -9.326066017150879
      ],
      [
        "▁чи",
        -9.328255653381348
      ],
      [
        "▁зайлшгүй",
        -9.328413009643555
      ],
      [
        "▁эсэхийг",
        -9.32848834991455
      ],
      [
        "▁мөрийн",
        -9.32868766784668
      ],
      [
        "▁хөдөлгөөний",
        -9.329209327697754
      ],
      [
        "▁тогтоол",
        -9.330766677856445
      ],
      [
        "▁байгууллагуудын",
        -9.331097602844238
      ],
      [
        "тэйгээ",
        -9.3313570022583
      ],
      [
        "▁Одоогоор",
        -9.33172607421875
      ],
      [
        "Р",
        -9.332669258117676
      ],
      [
        "▁урьдчилсан",
        -9.332952499389648
      ],
      [
        "▁олсон",
        -9.333099365234375
      ],
      [
        "▁саналаа",
        -9.334229469299316
      ],
      [
        "▁валютын",
        -9.334248542785645
      ],
      [
        "▁спорт",
        -9.334543228149414
      ],
      [
        "▁бусдын",
        -9.336746215820312
      ],
      [
        "▁Зам",
        -9.337099075317383
      ],
      [
        "Энэ",
        -9.337221145629883
      ],
      [
        "▁тогтмол",
        -9.337491989135742
      ],
      [
        "▁утсаар",
        -9.338372230529785
      ],
      [
        "▁ойлголт",
        -9.3399658203125
      ],
      [
        "▁сонгох",
        -9.340816497802734
      ],
      [
        "▁суманд",
        -9.34115219116211
      ],
      [
        "▁of",
        -9.343011856079102
      ],
      [
        "▁сонгон",
        -9.343012809753418
      ],
      [
        "И",
        -9.343467712402344
      ],
      [
        "▁тавдугаар",
        -9.343629837036133
      ],
      [
        "▁Баян",
        -9.34383773803711
      ],
      [
        "▁Өмнөд",
        -9.34476089477539
      ],
      [
        "▁хэлбэрээр",
        -9.346132278442383
      ],
      [
        "▁өрхийн",
        -9.346796989440918
      ],
      [
        "▁Дархан",
        -9.346883773803711
      ],
      [
        "S",
        -9.347211837768555
      ],
      [
        "сны",
        -9.347269058227539
      ],
      [
        "▁суугаа",
        -9.347433090209961
      ],
      [
        "▁малын",
        -9.348002433776855
      ],
      [
        "▁амьдралд",
        -9.348349571228027
      ],
      [
        "▁зэргийн",
        -9.348605155944824
      ],
      [
        "▁бүсгүй",
        -9.348675727844238
      ],
      [
        "▁биеэ",
        -9.34888744354248
      ],
      [
        "▁үзүүлэлт",
        -9.348986625671387
      ],
      [
        "▁орнууд",
        -9.349138259887695
      ],
      [
        "▁өдрөөс",
        -9.349944114685059
      ],
      [
        "▁төрд",
        -9.350132942199707
      ],
      [
        "▁Замын",
        -9.350914001464844
      ],
      [
        "▁илэрхийлсэн",
        -9.352210998535156
      ],
      [
        "▁Ө",
        -9.352385520935059
      ],
      [
        "▁хааны",
        -9.352811813354492
      ],
      [
        "▁тайван",
        -9.353318214416504
      ],
      [
        "▁аз",
        -9.353376388549805
      ],
      [
        "▁аргаар",
        -9.35377311706543
      ],
      [
        "▁яаралтай",
        -9.354284286499023
      ],
      [
        "▁Бусад",
        -9.355904579162598
      ],
      [
        "▁ахмад",
        -9.356043815612793
      ],
      [
        "▁гарагт",
        -9.356057167053223
      ],
      [
        "▁гишүүний",
        -9.356195449829102
      ],
      [
        "▁бодол",
        -9.356393814086914
      ],
      [
        "▁өдрийг",
        -9.357470512390137
      ],
      [
        "▁ИТХ",
        -9.358129501342773
      ],
      [
        "▁шүүхэд",
        -9.358145713806152
      ],
      [
        "ынхан",
        -9.359572410583496
      ],
      [
        "▁26",
        -9.360145568847656
      ],
      [
        "▁орлогын",
        -9.360328674316406
      ],
      [
        "▁300",
        -9.360335350036621
      ],
      [
        "▁дүүрэгт",
        -9.360448837280273
      ],
      [
        "▁өөрчлөх",
        -9.361272811889648
      ],
      [
        "▁Дараа",
        -9.36414623260498
      ],
      [
        "▁явуулдаг",
        -9.365094184875488
      ],
      [
        "▁Орон",
        -9.368280410766602
      ],
      [
        "▁Түүнийг",
        -9.36918830871582
      ],
      [
        "▁тооцоо",
        -9.369955062866211
      ],
      [
        "▁Бидний",
        -9.370023727416992
      ],
      [
        "▁анхаарах",
        -9.370153427124023
      ],
      [
        "▁чаддаг",
        -9.370185852050781
      ],
      [
        "▁дөрөвдүгээр",
        -9.370270729064941
      ],
      [
        "▁бичиж",
        -9.37105655670166
      ],
      [
        "▁хичээл",
        -9.3711519241333
      ],
      [
        "▁байрны",
        -9.3714599609375
      ],
      [
        "▁хөдөлгөөн",
        -9.371684074401855
      ],
      [
        "▁Хар",
        -9.372591018676758
      ],
      [
        "▁Өмнө",
        -9.372800827026367
      ],
      [
        "Эрдэнэт",
        -9.37314510345459
      ],
      [
        "▁эрдэм",
        -9.374368667602539
      ],
      [
        "▁тусгаар",
        -9.375057220458984
      ],
      [
        "▁буурсан",
        -9.37535572052002
      ],
      [
        "▁өмчийн",
        -9.375507354736328
      ],
      [
        "▁тэгш",
        -9.375509262084961
      ],
      [
        "▁10-",
        -9.376575469970703
      ],
      [
        "▁хүсэлт",
        -9.378948211669922
      ],
      [
        "▁харагдаж",
        -9.379434585571289
      ],
      [
        "▁байдалтай",
        -9.379658699035645
      ],
      [
        "▁арай",
        -9.380800247192383
      ],
      [
        "▁Зүүн",
        -9.382721900939941
      ],
      [
        "▁орой",
        -9.382779121398926
      ],
      [
        "▁үнийн",
        -9.384188652038574
      ],
      [
        "▁Нөгөө",
        -9.38428783416748
      ],
      [
        "▁нохой",
        -9.386871337890625
      ],
      [
        "▁нэмэгдсэн",
        -9.387001037597656
      ],
      [
        "▁ихээр",
        -9.38709545135498
      ],
      [
        "▁төхөөрөмж",
        -9.388338088989258
      ],
      [
        "▁нисэх",
        -9.38899040222168
      ],
      [
        "Монголын",
        -9.389008522033691
      ],
      [
        "тан",
        -9.389467239379883
      ],
      [
        "▁хийхээр",
        -9.389630317687988
      ],
      [
        "▁хариулт",
        -9.39028263092041
      ],
      [
        "▁шинжилгээ",
        -9.39033317565918
      ],
      [
        "▁Өдрийн",
        -9.390522003173828
      ],
      [
        "▁Үүлшинэ",
        -9.390807151794434
      ],
      [
        "▁айлын",
        -9.391133308410645
      ],
      [
        "▁нээж",
        -9.391334533691406
      ],
      [
        "▁Ингэж",
        -9.391867637634277
      ],
      [
        "▁хуучин",
        -9.392520904541016
      ],
      [
        "▁хотноо",
        -9.393274307250977
      ],
      [
        "▁яриад",
        -9.393506050109863
      ],
      [
        "ноос",
        -9.3936767578125
      ],
      [
        "▁алхам",
        -9.396835327148438
      ],
      [
        "▁Цаашид",
        -9.396970748901367
      ],
      [
        "я",
        -9.397778511047363
      ],
      [
        "Ч",
        -9.399271965026855
      ],
      [
        "▁техникийн",
        -9.401646614074707
      ],
      [
        "▁28",
        -9.402824401855469
      ],
      [
        "▁олох",
        -9.403162956237793
      ],
      [
        "▁мөрдөн",
        -9.403594017028809
      ],
      [
        "▁хэллэгийг",
        -9.403740882873535
      ],
      [
        "▁гудамж",
        -9.403937339782715
      ],
      [
        "▁осол",
        -9.405801773071289
      ],
      [
        "▁тоог",
        -9.407000541687012
      ],
      [
        "▁ХХЗХ",
        -9.408127784729004
      ],
      [
        "▁батлан",
        -9.408295631408691
      ],
      [
        "▁бүтцийн",
        -9.40864086151123
      ],
      [
        "▁ирнэ",
        -9.409067153930664
      ],
      [
        "▁шуурна",
        -9.409790992736816
      ],
      [
        "▁хаагч",
        -9.409793853759766
      ],
      [
        "к",
        -9.40986442565918
      ],
      [
        "▁мэтээр",
        -9.410735130310059
      ],
      [
        "ай",
        -9.411420822143555
      ],
      [
        "▁дундаа",
        -9.412199020385742
      ],
      [
        "▁өвчний",
        -9.41225814819336
      ],
      [
        "▁хүүхдийг",
        -9.412405014038086
      ],
      [
        "▁гарган",
        -9.412619590759277
      ],
      [
        "лэг",
        -9.413735389709473
      ],
      [
        "▁жилдээ",
        -9.41426944732666
      ],
      [
        "▁Улмаар",
        -9.414299011230469
      ],
      [
        "▁дуучин",
        -9.41431999206543
      ],
      [
        "▁санхүүжилт",
        -9.414334297180176
      ],
      [
        "▁хохирол",
        -9.41473388671875
      ],
      [
        "▁тэднийг",
        -9.415404319763184
      ],
      [
        "▁хүүхдээ",
        -9.415525436401367
      ],
      [
        "▁Увс",
        -9.416003227233887
      ],
      [
        "▁зэргээр",
        -9.416089057922363
      ],
      [
        "▁ангид",
        -9.41739273071289
      ],
      [
        "▁Я",
        -9.418986320495605
      ],
      [
        "▁Дээрх",
        -9.419593811035156
      ],
      [
        "▁зохистой",
        -9.420096397399902
      ],
      [
        "▁гарна",
        -9.420148849487305
      ],
      [
        "▁ахлах",
        -9.4202241897583
      ],
      [
        "▁Хэм",
        -9.420881271362305
      ],
      [
        "Засгийн",
        -9.42110824584961
      ],
      [
        "▁батлагдсан",
        -9.421616554260254
      ],
      [
        "▁Иймээс",
        -9.421775817871094
      ],
      [
        "▁төлөвлөгөө",
        -9.422917366027832
      ],
      [
        "▁хэв",
        -9.423794746398926
      ],
      [
        "▁ашиглан",
        -9.424003601074219
      ],
      [
        "өд",
        -9.42411994934082
      ],
      [
        "▁бэлэг",
        -9.42414665222168
      ],
      [
        "▁өрх",
        -9.424199104309082
      ],
      [
        "жин",
        -9.424615859985352
      ],
      [
        "▁2011",
        -9.425938606262207
      ],
      [
        "үүдийг",
        -9.426358222961426
      ],
      [
        "▁хөрөнгийг",
        -9.427817344665527
      ],
      [
        "▁ирдэг",
        -9.428323745727539
      ],
      [
        "▁амьдардаг",
        -9.429596900939941
      ],
      [
        "▁харьцуулахад",
        -9.430745124816895
      ],
      [
        "▁мэргэжилтэн",
        -9.43076229095459
      ],
      [
        "▁үүргээ",
        -9.430811882019043
      ],
      [
        "▁хэлэлцээр",
        -9.43091106414795
      ],
      [
        "▁шалгаруулах",
        -9.431233406066895
      ],
      [
        "▁шатанд",
        -9.432126998901367
      ],
      [
        "хон",
        -9.432676315307617
      ],
      [
        "▁Америкийн",
        -9.432990074157715
      ],
      [
        "▁эмнэлэгт",
        -9.433876991271973
      ],
      [
        "▁минутад",
        -9.434118270874023
      ],
      [
        "▁агаар",
        -9.43420696258545
      ],
      [
        "▁ширүүснэ",
        -9.435420989990234
      ],
      [
        "▁даяар",
        -9.436113357543945
      ],
      [
        "▁хандах",
        -9.437118530273438
      ],
      [
        "▁нийттэй",
        -9.437423706054688
      ],
      [
        "▁судалж",
        -9.437573432922363
      ],
      [
        "▁хүнс",
        -9.438246726989746
      ],
      [
        "▁Бүгд",
        -9.43917465209961
      ],
      [
        "ийнхээ",
        -9.43941593170166
      ],
      [
        "▁МЭДЭЭ",
        -9.439457893371582
      ],
      [
        "▁утас",
        -9.439678192138672
      ],
      [
        "▁өрсөлдөх",
        -9.440232276916504
      ],
      [
        "▁төлөв",
        -9.443209648132324
      ],
      [
        "▁хориг",
        -9.445878982543945
      ],
      [
        "▁Туул",
        -9.4464111328125
      ],
      [
        "▁Хөдөлмөрийн",
        -9.446749687194824
      ],
      [
        "▁өдөрт",
        -9.447714805603027
      ],
      [
        "▁зөвлөгөө",
        -9.448175430297852
      ],
      [
        "▁хөгжиж",
        -9.448202133178711
      ],
      [
        "▁тамирчид",
        -9.448246955871582
      ],
      [
        "▁Цагаан",
        -9.448942184448242
      ],
      [
        "B",
        -9.45072078704834
      ],
      [
        "▁Өнөөдрийн",
        -9.451210975646973
      ],
      [
        "▁зардлыг",
        -9.45252799987793
      ],
      [
        "▁зорилт",
        -9.452630996704102
      ],
      [
        "▁явуулсан",
        -9.453697204589844
      ],
      [
        "▁өв",
        -9.45413589477539
      ],
      [
        "▁төрөөс",
        -9.455856323242188
      ],
      [
        "▁хараад",
        -9.458593368530273
      ],
      [
        "▁шугам",
        -9.458622932434082
      ],
      [
        "▁эмэгтэйчүүдийн",
        -9.459174156188965
      ],
      [
        "▁Солонгос",
        -9.45978832244873
      ],
      [
        "▁архи",
        -9.460026741027832
      ],
      [
        "▁мэддэг",
        -9.460427284240723
      ],
      [
        "▁нэмэр",
        -9.460662841796875
      ],
      [
        "▁үүргийг",
        -9.46066951751709
      ],
      [
        "▁цэцэрлэгийн",
        -9.461298942565918
      ],
      [
        "▁итгэлтэй",
        -9.4613037109375
      ],
      [
        "▁Мэргэжлийн",
        -9.46146011352539
      ],
      [
        "ол",
        -9.461511611938477
      ],
      [
        "▁шинэчлэл",
        -9.463067054748535
      ],
      [
        "▁хандлага",
        -9.464130401611328
      ],
      [
        "▁уулзалтын",
        -9.464404106140137
      ],
      [
        "▁магадлалтай",
        -9.464743614196777
      ],
      [
        "▁давж",
        -9.465886116027832
      ],
      [
        "даж",
        -9.465980529785156
      ],
      [
        "▁төслүүд",
        -9.4661283493042
      ],
      [
        "▁үүрэгтэй",
        -9.466156005859375
      ],
      [
        "▁төлбөрийн",
        -9.467495918273926
      ],
      [
        "▁цол",
        -9.467944145202637
      ],
      [
        "▁эс",
        -9.469316482543945
      ],
      [
        "▁сонгогдсон",
        -9.469833374023438
      ],
      [
        "▁сууриа",
        -9.470582008361816
      ],
      [
        "▁Ажил",
        -9.47081470489502
      ],
      [
        "▁хилийн",
        -9.47103214263916
      ],
      [
        "a",
        -9.471220016479492
      ],
      [
        "▁тооцох",
        -9.4717435836792
      ],
      [
        "▁хэлэхдээ",
        -9.47227954864502
      ],
      [
        "▁ер",
        -9.472332954406738
      ],
      [
        "00",
        -9.473030090332031
      ],
      [
        "10",
        -9.473044395446777
      ],
      [
        "▁гаргаад",
        -9.473528861999512
      ],
      [
        "У",
        -9.47386646270752
      ],
      [
        "▁дундаж",
        -9.474753379821777
      ],
      [
        "▁нөхөр",
        -9.475586891174316
      ],
      [
        "▁эхэллээ",
        -9.477296829223633
      ],
      [
        "▁Сэлэнгэ",
        -9.47779369354248
      ],
      [
        "▁зүйлд",
        -9.477923393249512
      ],
      [
        "▁гэрээг",
        -9.478007316589355
      ],
      [
        "ер",
        -9.478261947631836
      ],
      [
        "сээр",
        -9.479280471801758
      ],
      [
        "▁эхнэр",
        -9.479520797729492
      ],
      [
        "▁даваа",
        -9.479832649230957
      ],
      [
        "▁Ялангуяа",
        -9.480528831481934
      ],
      [
        "▁урлаг",
        -9.48162841796875
      ],
      [
        "▁Орхон",
        -9.48243236541748
      ],
      [
        "▁харилцааг",
        -9.48298454284668
      ],
      [
        "▁чиглэсэн",
        -9.483271598815918
      ],
      [
        "▁дүрэм",
        -9.484488487243652
      ],
      [
        "▁үзвэл",
        -9.484902381896973
      ],
      [
        "▁эрүүгийн",
        -9.485438346862793
      ],
      [
        "▁маргааш",
        -9.485936164855957
      ],
      [
        "▁парламентын",
        -9.487695693969727
      ],
      [
        "▁улиралд",
        -9.487802505493164
      ],
      [
        "▁үеэс",
        -9.488076210021973
      ],
      [
        "▁засгийг",
        -9.488581657409668
      ],
      [
        "К",
        -9.48867416381836
      ],
      [
        "▁20-",
        -9.489228248596191
      ],
      [
        "▁загвар",
        -9.490275382995605
      ],
      [
        "▁Нийт",
        -9.490704536437988
      ],
      [
        "▁доллар",
        -9.490839004516602
      ],
      [
        "▁урсгал",
        -9.4909086227417
      ],
      [
        "▁байдаггүй",
        -9.491386413574219
      ],
      [
        "▁маргаан",
        -9.491713523864746
      ],
      [
        "▁баярын",
        -9.492090225219727
      ],
      [
        "▁наадамд",
        -9.492258071899414
      ],
      [
        "20",
        -9.492269515991211
      ],
      [
        "▁зээлийг",
        -9.492400169372559
      ],
      [
        "▁одоогоор",
        -9.49290943145752
      ],
      [
        "Ш",
        -9.492937088012695
      ],
      [
        "▁утга",
        -9.493826866149902
      ],
      [
        "▁хариуцлагатай",
        -9.494283676147461
      ],
      [
        "▁S",
        -9.494572639465332
      ],
      [
        "чихсан",
        -9.494879722595215
      ],
      [
        "▁2000",
        -9.495051383972168
      ],
      [
        "▁сүлжээ",
        -9.495051383972168
      ],
      [
        "▁аюултай",
        -9.497100830078125
      ],
      [
        "▁7-12",
        -9.498791694641113
      ],
      [
        "▁үйлдвэрлэлийн",
        -9.49980640411377
      ],
      [
        "▁амьд",
        -9.500060081481934
      ],
      [
        "▁хийлээ",
        -9.501585006713867
      ],
      [
        "▁дэмжсэн",
        -9.503767013549805
      ],
      [
        "▁НИТХ",
        -9.504055976867676
      ],
      [
        "▁баяртай",
        -9.504424095153809
      ],
      [
        "▁гарц",
        -9.504709243774414
      ],
      [
        "▁нэмэх",
        -9.505523681640625
      ],
      [
        "▁залуучуудын",
        -9.506036758422852
      ],
      [
        "▁орондоо",
        -9.506194114685059
      ],
      [
        "▁Ард",
        -9.506339073181152
      ],
      [
        "▁2-",
        -9.507462501525879
      ],
      [
        "▁эхэнд",
        -9.5079984664917
      ],
      [
        "ү",
        -9.508755683898926
      ],
      [
        "▁49",
        -9.508965492248535
      ],
      [
        "▁зүрх",
        -9.509035110473633
      ],
      [
        "йн",
        -9.510510444641113
      ],
      [
        "▁дүгнэлтийг",
        -9.511442184448242
      ],
      [
        "▁агентлаг",
        -9.512967109680176
      ],
      [
        "▁засвар",
        -9.513418197631836
      ],
      [
        "▁анхан",
        -9.514355659484863
      ],
      [
        "▁далайн",
        -9.514447212219238
      ],
      [
        "▁гэртээ",
        -9.515129089355469
      ],
      [
        "▁есдүгээр",
        -9.515131950378418
      ],
      [
        "▁доод",
        -9.51530647277832
      ],
      [
        "Энхбаяр",
        -9.515337944030762
      ],
      [
        "▁I",
        -9.516575813293457
      ],
      [
        "▁эмчилгээ",
        -9.51665210723877
      ],
      [
        "▁ойрын",
        -9.51677417755127
      ],
      [
        "▁хангасан",
        -9.517284393310547
      ],
      [
        "эр",
        -9.517288208007812
      ],
      [
        "▁үүнээс",
        -9.517702102661133
      ],
      [
        "▁сайдаар",
        -9.518014907836914
      ],
      [
        "▁эрсдэл",
        -9.518376350402832
      ],
      [
        "▁Хуулийн",
        -9.518682479858398
      ],
      [
        "▁хувьцаа",
        -9.520769119262695
      ],
      [
        "▁төгссөн",
        -9.521145820617676
      ],
      [
        "ЫН",
        -9.521428108215332
      ],
      [
        "▁хөнгөн",
        -9.522284507751465
      ],
      [
        "▁15-",
        -9.52265739440918
      ],
      [
        "▁дуудлага",
        -9.523103713989258
      ],
      [
        "▁байрлах",
        -9.523345947265625
      ],
      [
        "▁хөгжмийн",
        -9.52397632598877
      ],
      [
        "▁хаагчид",
        -9.52436637878418
      ],
      [
        "▁тамхи",
        -9.524616241455078
      ],
      [
        "▁тосны",
        -9.524723052978516
      ],
      [
        "▁Энд",
        -9.524792671203613
      ],
      [
        "▁говийн",
        -9.524807929992676
      ],
      [
        "▁гаргадаг",
        -9.524890899658203
      ],
      [
        "▁ижил",
        -9.525562286376953
      ],
      [
        "▁ирлээ",
        -9.526172637939453
      ],
      [
        "Эрдэнэбат",
        -9.527630805969238
      ],
      [
        "▁бар",
        -9.529084205627441
      ],
      [
        "▁бүсэд",
        -9.529252052307129
      ],
      [
        "уулж",
        -9.529610633850098
      ],
      [
        "▁олимпийн",
        -9.530070304870605
      ],
      [
        "▁бүхний",
        -9.53050708770752
      ],
      [
        "▁хүндрэл",
        -9.531822204589844
      ],
      [
        "▁шаардлагыг",
        -9.53244686126709
      ],
      [
        "уудад",
        -9.532685279846191
      ],
      [
        "▁төлөөлөгчид",
        -9.532920837402344
      ],
      [
        "▁явган",
        -9.533255577087402
      ],
      [
        "▁2010",
        -9.53370189666748
      ],
      [
        "▁сонголт",
        -9.533716201782227
      ],
      [
        "▁хямд",
        -9.534164428710938
      ],
      [
        "▁эрч",
        -9.534496307373047
      ],
      [
        "▁ноцтой",
        -9.535563468933105
      ],
      [
        "▁хамаагүй",
        -9.535589218139648
      ],
      [
        "▁сурах",
        -9.536077499389648
      ],
      [
        "лаг",
        -9.53750991821289
      ],
      [
        "▁зохицуулалт",
        -9.53790283203125
      ],
      [
        "▁гэрээний",
        -9.538615226745605
      ],
      [
        "▁эрт",
        -9.539278030395508
      ],
      [
        "▁Сэтгэгдэл",
        -9.540202140808105
      ],
      [
        "▁орчныг",
        -9.540305137634277
      ],
      [
        "▁зуур",
        -9.540963172912598
      ],
      [
        "▁усан",
        -9.541625022888184
      ],
      [
        "▁мэдэгдэл",
        -9.542195320129395
      ],
      [
        "дог",
        -9.542558670043945
      ],
      [
        "▁сэтгэлийн",
        -9.543066024780273
      ],
      [
        "▁тэмцээний",
        -9.543352127075195
      ],
      [
        "▁мөнгөө",
        -9.543514251708984
      ],
      [
        "▁таныг",
        -9.544198989868164
      ],
      [
        "▁хугацааг",
        -9.544333457946777
      ],
      [
        "▁дүүрэн",
        -9.545116424560547
      ],
      [
        "▁этгээд",
        -9.545516014099121
      ],
      [
        "▁үгийг",
        -9.546513557434082
      ],
      [
        "▁гоо",
        -9.546819686889648
      ],
      [
        "▁хүлээсэн",
        -9.546907424926758
      ],
      [
        "▁Хангай",
        -9.54781723022461
      ],
      [
        "▁Эл",
        -9.549235343933105
      ],
      [
        "▁төлөвлөсөн",
        -9.549491882324219
      ],
      [
        "▁B",
        -9.549500465393066
      ],
      [
        "▁эрдэмтэн",
        -9.549595832824707
      ],
      [
        "▁чуулган",
        -9.550284385681152
      ],
      [
        "аагүй",
        -9.551206588745117
      ],
      [
        "▁хорт",
        -9.551616668701172
      ],
      [
        "▁удахгүй",
        -9.553081512451172
      ],
      [
        "▁бодис",
        -9.55369758605957
      ],
      [
        "▁автомашин",
        -9.555923461914062
      ],
      [
        "▁Хэдийгээр",
        -9.555933952331543
      ],
      [
        "▁Бүх",
        -9.557191848754883
      ],
      [
        "▁нөлөөлж",
        -9.558309555053711
      ],
      [
        "▁лээ",
        -9.558777809143066
      ],
      [
        "▁наймдугаар",
        -9.559560775756836
      ],
      [
        "▁саад",
        -9.559669494628906
      ],
      [
        "▁амар",
        -9.563426971435547
      ],
      [
        "▁хэлний",
        -9.56419563293457
      ],
      [
        "▁насанд",
        -9.564277648925781
      ],
      [
        "▁35",
        -9.564568519592285
      ],
      [
        "лаж",
        -9.564864158630371
      ],
      [
        "▁сайдад",
        -9.565213203430176
      ],
      [
        "дах",
        -9.565347671508789
      ],
      [
        "▁Баянгол",
        -9.566699028015137
      ],
      [
        "▁есөн",
        -9.569092750549316
      ],
      [
        "),",
        -9.569548606872559
      ],
      [
        "▁эцэст",
        -9.57009220123291
      ],
      [
        "▁оюун",
        -9.572480201721191
      ],
      [
        "▁бүхэнд",
        -9.572904586791992
      ],
      [
        "▁арилжааны",
        -9.574268341064453
      ],
      [
        "▁уулын",
        -9.574841499328613
      ],
      [
        "ынхаа",
        -9.574856758117676
      ],
      [
        "▁эмэгтэйчүүд",
        -9.575297355651855
      ],
      [
        "▁өрөө",
        -9.575882911682129
      ],
      [
        "▁хэрэгслийн",
        -9.576315879821777
      ],
      [
        "▁огцруулах",
        -9.576874732971191
      ],
      [
        "▁чадвартай",
        -9.57746410369873
      ],
      [
        "▁мэргэжил",
        -9.57829761505127
      ],
      [
        "▁очсон",
        -9.579121589660645
      ],
      [
        "▁гавьяат",
        -9.579655647277832
      ],
      [
        "▁зүйлс",
        -9.581023216247559
      ],
      [
        "▁харьцангуй",
        -9.58219051361084
      ],
      [
        "▁гадны",
        -9.582728385925293
      ],
      [
        "▁татан",
        -9.582985877990723
      ],
      [
        "▁цөөн",
        -9.583133697509766
      ],
      [
        "▁C",
        -9.583511352539062
      ],
      [
        "▁үндэс",
        -9.58392333984375
      ],
      [
        "▁хамгааллын",
        -9.584107398986816
      ],
      [
        "▁тооны",
        -9.584396362304688
      ],
      [
        "▁хэлээд",
        -9.584671020507812
      ],
      [
        "энд",
        -9.585492134094238
      ],
      [
        "▁үүсгэн",
        -9.586047172546387
      ],
      [
        "▁дарамт",
        -9.58665657043457
      ],
      [
        "ээсээ",
        -9.587533950805664
      ],
      [
        "▁тогтолцоо",
        -9.587769508361816
      ],
      [
        "▁хүртсэн",
        -9.588048934936523
      ],
      [
        "лийн",
        -9.588801383972168
      ],
      [
        "▁харуулж",
        -9.589223861694336
      ],
      [
        "▁Хүүхэд",
        -9.591035842895508
      ],
      [
        "▁хоорондоо",
        -9.591119766235352
      ],
      [
        "хоо",
        -9.591228485107422
      ],
      [
        "▁үзэсгэлэн",
        -9.591358184814453
      ],
      [
        "ИЙН",
        -9.5914945602417
      ],
      [
        "▁Алтайн",
        -9.5914945602417
      ],
      [
        "▁дур",
        -9.591612815856934
      ],
      [
        "▁хамрагдах",
        -9.5917329788208
      ],
      [
        "▁хүнтэй",
        -9.592368125915527
      ],
      [
        "▁түүхтэй",
        -9.59305191040039
      ],
      [
        "▁хугацаагаар",
        -9.59371566772461
      ],
      [
        "▁хөдлөх",
        -9.595571517944336
      ],
      [
        "▁бүрдүүлж",
        -9.595954895019531
      ],
      [
        "▁станц",
        -9.597298622131348
      ],
      [
        "дөө",
        -9.597518920898438
      ],
      [
        "▁Ховд",
        -9.59865951538086
      ],
      [
        "▁шилжүүлэх",
        -9.598687171936035
      ],
      [
        "▁р",
        -9.600137710571289
      ],
      [
        "▁албанд",
        -9.600504875183105
      ],
      [
        "▁хүрээлэн",
        -9.600939750671387
      ],
      [
        "▁нэвтрүүлэх",
        -9.601239204406738
      ],
      [
        "га",
        -9.601988792419434
      ],
      [
        "▁улсаас",
        -9.602041244506836
      ],
      [
        "▁харсан",
        -9.602094650268555
      ],
      [
        "▁тэдэнд",
        -9.602293968200684
      ],
      [
        "▁сэргээх",
        -9.603466033935547
      ],
      [
        "▁төлж",
        -9.604196548461914
      ],
      [
        "▁буудал",
        -9.605062484741211
      ],
      [
        "▁мэс",
        -9.605583190917969
      ],
      [
        "▁зогсоох",
        -9.605586051940918
      ],
      [
        "▁45",
        -9.606348037719727
      ],
      [
        "▁үндэслэн",
        -9.606804847717285
      ],
      [
        "▁хэлтсээс",
        -9.606902122497559
      ],
      [
        "▁ашигт",
        -9.607702255249023
      ],
      [
        "▁бүртгэлийн",
        -9.608498573303223
      ],
      [
        "P",
        -9.60885238647461
      ],
      [
        "ө",
        -9.609726905822754
      ],
      [
        "▁Завхан",
        -9.609893798828125
      ],
      [
        "▁дагаж",
        -9.609926223754883
      ],
      [
        "▁тоглож",
        -9.610189437866211
      ],
      [
        "▁хотгор",
        -9.610313415527344
      ],
      [
        "▁лам",
        -9.610347747802734
      ],
      [
        "▁зориулж",
        -9.611753463745117
      ],
      [
        "▁шийдэж",
        -9.611977577209473
      ],
      [
        "▁дэвсгэрт",
        -9.612566947937012
      ],
      [
        "▁үлгэр",
        -9.612586975097656
      ],
      [
        "▁зохиолч",
        -9.612727165222168
      ],
      [
        "▁4.",
        -9.613564491271973
      ],
      [
        "ing",
        -9.614246368408203
      ],
      [
        "▁гүн",
        -9.614291191101074
      ],
      [
        "▁бодлоо",
        -9.61430835723877
      ],
      [
        "▁Дорнод",
        -9.61467456817627
      ],
      [
        "▁уралдаан",
        -9.615938186645508
      ],
      [
        "o",
        -9.618091583251953
      ],
      [
        "▁замд",
        -9.618098258972168
      ],
      [
        "▁баримтлах",
        -9.618426322937012
      ],
      [
        "▁байгуулахаар",
        -9.618643760681152
      ],
      [
        "▁ав",
        -9.619288444519043
      ],
      [
        "▁дотроо",
        -9.619821548461914
      ],
      [
        "▁асууж",
        -9.62070083618164
      ],
      [
        "▁компанид",
        -9.621030807495117
      ],
      [
        "Элбэгдорж",
        -9.621039390563965
      ],
      [
        "▁ноён",
        -9.6214017868042
      ],
      [
        "▁алдаж",
        -9.621798515319824
      ],
      [
        "▁Газрын",
        -9.62233829498291
      ],
      [
        "▁хамтдаа",
        -9.6226806640625
      ],
      [
        "▁ганцхан",
        -9.622688293457031
      ],
      [
        "▁хичээлийн",
        -9.623038291931152
      ],
      [
        "▁байгууламж",
        -9.623076438903809
      ],
      [
        "ир",
        -9.623384475708008
      ],
      [
        "эг",
        -9.623725891113281
      ],
      [
        "▁тооцож",
        -9.623756408691406
      ],
      [
        "▁Жишээ",
        -9.623761177062988
      ],
      [
        "▁бүтээлч",
        -9.624136924743652
      ],
      [
        "▁Төр",
        -9.624138832092285
      ],
      [
        "▁ОУВС",
        -9.624298095703125
      ],
      [
        "▁сэтгэгдлийг",
        -9.625659942626953
      ],
      [
        "▁тогтоож",
        -9.625812530517578
      ],
      [
        "▁НИЙГЭМ",
        -9.62594223022461
      ],
      [
        "▁газраа",
        -9.62853717803955
      ],
      [
        "▁ялангуяа",
        -9.628939628601074
      ],
      [
        "▁Ф",
        -9.62897777557373
      ],
      [
        "ка",
        -9.629829406738281
      ],
      [
        "▁айлчлал",
        -9.630915641784668
      ],
      [
        "▁дасгалжуулагч",
        -9.63148021697998
      ],
      [
        "▁ардчилсан",
        -9.63171100616455
      ],
      [
        "П",
        -9.63172721862793
      ],
      [
        "▁3-",
        -9.631902694702148
      ],
      [
        "▁шинэчилсэн",
        -9.632137298583984
      ],
      [
        "▁Харамсалтай",
        -9.632144927978516
      ],
      [
        "▁уламжлалт",
        -9.63264274597168
      ],
      [
        "дан",
        -9.633012771606445
      ],
      [
        "▁саяхан",
        -9.633085250854492
      ],
      [
        "▁орныхоо",
        -9.634075164794922
      ],
      [
        "▁асуудлын",
        -9.634346961975098
      ],
      [
        "▁цааш",
        -9.634711265563965
      ],
      [
        "▁тодорхойгүй",
        -9.635091781616211
      ],
      [
        "▁түрүүнд",
        -9.635577201843262
      ],
      [
        "▁ид",
        -9.635863304138184
      ],
      [
        "▁нөлөөтэй",
        -9.63655948638916
      ],
      [
        "▁шүүгч",
        -9.637006759643555
      ],
      [
        "I",
        -9.637506484985352
      ],
      [
        "▁бүгдийг",
        -9.638236045837402
      ],
      [
        "▁2009",
        -9.63856315612793
      ],
      [
        "▁тогтолцоог",
        -9.639392852783203
      ],
      [
        "хүү",
        -9.639630317687988
      ],
      [
        "▁мэдээлж",
        -9.639693260192871
      ],
      [
        "▁орд",
        -9.6397123336792
      ],
      [
        "тал",
        -9.639949798583984
      ],
      [
        "▁хийн",
        -9.640101432800293
      ],
      [
        "▁Анх",
        -9.640419006347656
      ],
      [
        "▁хүчингүй",
        -9.640731811523438
      ],
      [
        "▁цэцэрлэгт",
        -9.641756057739258
      ],
      [
        "▁ордог",
        -9.643230438232422
      ],
      [
        "Батболд",
        -9.643389701843262
      ],
      [
        "чууд",
        -9.643549919128418
      ],
      [
        "er",
        -9.643982887268066
      ],
      [
        "▁нэрийн",
        -9.643986701965332
      ],
      [
        "▁үнэлгээ",
        -9.6441650390625
      ],
      [
        "▁Зөвхөн",
        -9.644176483154297
      ],
      [
        "▁зарласан",
        -9.644815444946289
      ],
      [
        "on",
        -9.64527702331543
      ],
      [
        "▁хүчээр",
        -9.6455717086792
      ],
      [
        "▁талтай",
        -9.645879745483398
      ],
      [
        "▁тээвэр",
        -9.646134376525879
      ],
      [
        "▁Хэн",
        -9.646536827087402
      ],
      [
        "▁үнийг",
        -9.646712303161621
      ],
      [
        "▁хөх",
        -9.64671516418457
      ],
      [
        "▁орноо",
        -9.646817207336426
      ],
      [
        "▁суурин",
        -9.64686393737793
      ],
      [
        "▁явц",
        -9.647268295288086
      ],
      [
        "▁сурч",
        -9.647626876831055
      ],
      [
        "▁цус",
        -9.647978782653809
      ],
      [
        "▁байгуулна",
        -9.647997856140137
      ],
      [
        "▁ирүүлсэн",
        -9.648008346557617
      ],
      [
        "▁1000",
        -9.648024559020996
      ],
      [
        "▁долларын",
        -9.648452758789062
      ],
      [
        "▁:",
        -9.649114608764648
      ],
      [
        "▁Одоогийн",
        -9.64933967590332
      ],
      [
        "▁хүүхдэд",
        -9.649380683898926
      ],
      [
        "▁материал",
        -9.651018142700195
      ],
      [
        "▁цэвэрлэх",
        -9.651836395263672
      ],
      [
        "Э",
        -9.65206241607666
      ],
      [
        "им",
        -9.652600288391113
      ],
      [
        "сөн",
        -9.65271282196045
      ],
      [
        "▁хайртай",
        -9.653273582458496
      ],
      [
        "▁мэдээж",
        -9.654370307922363
      ],
      [
        "▁шороон",
        -9.654484748840332
      ],
      [
        "▁дурдсан",
        -9.654932022094727
      ],
      [
        "гээс",
        -9.655341148376465
      ],
      [
        "▁санд",
        -9.655786514282227
      ],
      [
        "▁өмч",
        -9.65584659576416
      ],
      [
        "эй",
        -9.656245231628418
      ],
      [
        "▁киноны",
        -9.656498908996582
      ],
      [
        "▁иржээ",
        -9.657485961914062
      ],
      [
        "ран",
        -9.659075736999512
      ],
      [
        "▁усанд",
        -9.659111022949219
      ],
      [
        "▁Хойд",
        -9.65920639038086
      ],
      [
        "▁итгэж",
        -9.6595458984375
      ],
      [
        "▁хийгдэж",
        -9.659560203552246
      ],
      [
        "▁сонирхол",
        -9.66028118133545
      ],
      [
        "▁2008",
        -9.661999702453613
      ],
      [
        "▁чөлөө",
        -9.66242790222168
      ],
      [
        "▁and",
        -9.66268253326416
      ],
      [
        "▁дээшлүүлэх",
        -9.662787437438965
      ],
      [
        "▁эргээд",
        -9.662798881530762
      ],
      [
        "▁долдугаар",
        -9.663949012756348
      ],
      [
        "▁утгаараа",
        -9.664615631103516
      ],
      [
        "4",
        -9.664970397949219
      ],
      [
        "▁үйлдсэн",
        -9.665127754211426
      ],
      [
        "▁залуучууд",
        -9.666014671325684
      ],
      [
        "▁бүтээгдэхүүнийг",
        -9.666354179382324
      ],
      [
        "▁Сонгинохайрхан",
        -9.666550636291504
      ],
      [
        "▁хамгаалж",
        -9.667194366455078
      ],
      [
        "▁амьтан",
        -9.668559074401855
      ],
      [
        "▁судлаачид",
        -9.66865348815918
      ],
      [
        "▁Эрдэнэт",
        -9.668754577636719
      ],
      [
        "30",
        -9.66927719116211
      ],
      [
        "▁бат",
        -9.669315338134766
      ],
      [
        "▁парламент",
        -9.670110702514648
      ],
      [
        "ed",
        -9.670235633850098
      ],
      [
        "▁унаж",
        -9.670390129089355
      ],
      [
        "▁баталж",
        -9.670916557312012
      ],
      [
        "▁ялалт",
        -9.670920372009277
      ],
      [
        "▁авахаар",
        -9.670933723449707
      ],
      [
        "▁зарчим",
        -9.670934677124023
      ],
      [
        "▁Баруун",
        -9.671381950378418
      ],
      [
        "▁онгоц",
        -9.671610832214355
      ],
      [
        "▁сүүлд",
        -9.671612739562988
      ],
      [
        "▁СЭТГЭГДЭЛ",
        -9.672213554382324
      ],
      [
        "маар",
        -9.672934532165527
      ],
      [
        "лын",
        -9.673069953918457
      ],
      [
        "▁Үүнтэй",
        -9.674020767211914
      ],
      [
        "▁өнөө",
        -9.67556095123291
      ],
      [
        "ой",
        -9.676545143127441
      ],
      [
        "▁зургийг",
        -9.676547050476074
      ],
      [
        "▁эхэлнэ",
        -9.676645278930664
      ],
      [
        "▁үүний",
        -9.67715835571289
      ],
      [
        "▁ердөө",
        -9.678056716918945
      ],
      [
        "үү",
        -9.678171157836914
      ],
      [
        "▁Ирэх",
        -9.67900562286377
      ],
      [
        "▁зууны",
        -9.679482460021973
      ],
      [
        "▁Шадар",
        -9.67980670928955
      ],
      [
        "▁32",
        -9.6807222366333
      ],
      [
        "▁бодох",
        -9.681235313415527
      ],
      [
        "▁34",
        -9.681660652160645
      ],
      [
        "▁удаад",
        -9.68198013305664
      ],
      [
        "▁далд",
        -9.682282447814941
      ],
      [
        "▁Ингэхдээ",
        -9.68232250213623
      ],
      [
        "▁ДАШТ",
        -9.68330192565918
      ],
      [
        "05",
        -9.6837797164917
      ],
      [
        "i",
        -9.684344291687012
      ],
      [
        "снаар",
        -9.685137748718262
      ],
      [
        "▁өгөөд",
        -9.685681343078613
      ],
      [
        "▁ан",
        -9.686399459838867
      ],
      [
        "▁зорчих",
        -9.686779022216797
      ],
      [
        "▁стандарт",
        -9.686859130859375
      ],
      [
        "▁доктор",
        -9.687040328979492
      ],
      [
        "▁тэтгэврийн",
        -9.687149047851562
      ],
      [
        "▁холбогдсон",
        -9.68718147277832
      ],
      [
        "▁багагүй",
        -9.687552452087402
      ],
      [
        "▁өсч",
        -9.688091278076172
      ],
      [
        "▁асуудлаа",
        -9.689345359802246
      ],
      [
        "▁хүүтэй",
        -9.689753532409668
      ],
      [
        "6",
        -9.689791679382324
      ],
      [
        "▁гүйцэтгэж",
        -9.689942359924316
      ],
      [
        "▁үргэлжилж",
        -9.690139770507812
      ],
      [
        "▁эмийн",
        -9.69028377532959
      ],
      [
        "▁заалтыг",
        -9.690631866455078
      ],
      [
        "▁монголын",
        -9.690747261047363
      ],
      [
        "▁арьс",
        -9.690996170043945
      ],
      [
        "▁нэрээр",
        -9.691239356994629
      ],
      [
        "▁суурийг",
        -9.69159984588623
      ],
      [
        "▁гэрийн",
        -9.692437171936035
      ],
      [
        "▁ховор",
        -9.692514419555664
      ],
      [
        "▁танилцуулж",
        -9.6929931640625
      ],
      [
        "▁боловсруулсан",
        -9.693164825439453
      ],
      [
        "▁гаралтай",
        -9.69335651397705
      ],
      [
        "▁сэтгүүлч",
        -9.69343376159668
      ],
      [
        "▁уламжлал",
        -9.693502426147461
      ],
      [
        "▁амралтын",
        -9.69493293762207
      ],
      [
        "▁явагдаж",
        -9.695174217224121
      ],
      [
        "▁баталгаа",
        -9.69555950164795
      ],
      [
        "▁онцолж",
        -9.69616985321045
      ],
      [
        "▁малчин",
        -9.696660995483398
      ],
      [
        "у",
        -9.69685173034668
      ],
      [
        "▁зохих",
        -9.69714069366455
      ],
      [
        "▁шалгалтын",
        -9.697941780090332
      ],
      [
        "▁цэг",
        -9.698147773742676
      ],
      [
        "▁Батлан",
        -9.698319435119629
      ],
      [
        "▁бүтээсэн",
        -9.699223518371582
      ],
      [
        "▁баригчид",
        -9.69985294342041
      ],
      [
        "вэл",
        -9.70107364654541
      ],
      [
        "▁барсан",
        -9.701373100280762
      ],
      [
        "▁бусдад",
        -9.701616287231445
      ],
      [
        "▁хуудас",
        -9.701627731323242
      ],
      [
        "иа",
        -9.701879501342773
      ],
      [
        "▁зарцуулах",
        -9.702189445495605
      ],
      [
        "▁цай",
        -9.703047752380371
      ],
      [
        "▁авахыг",
        -9.703051567077637
      ],
      [
        "▁даасан",
        -9.703143119812012
      ],
      [
        "▁тэтгэвэр",
        -9.703841209411621
      ],
      [
        "▁Газар",
        -9.704574584960938
      ],
      [
        "▁зорьж",
        -9.705046653747559
      ],
      [
        "▁нөлөөлөх",
        -9.705459594726562
      ],
      [
        "▁өрийн",
        -9.705961227416992
      ],
      [
        "▁нэмэгдэх",
        -9.705985069274902
      ],
      [
        "▁танилцуулсан",
        -9.706521987915039
      ],
      [
        "▁гарчээ",
        -9.706696510314941
      ],
      [
        "▁эхээр",
        -9.706954002380371
      ],
      [
        "Ү",
        -9.707088470458984
      ],
      [
        "▁төслүүдийг",
        -9.70812702178955
      ],
      [
        "▁ярилцаж",
        -9.70829963684082
      ],
      [
        "▁авлаа",
        -9.70833969116211
      ],
      [
        "▁хаа",
        -9.708341598510742
      ],
      [
        "Улаанбаатар",
        -9.70875358581543
      ],
      [
        "▁төгөлдөр",
        -9.708873748779297
      ],
      [
        "▁харьяа",
        -9.709123611450195
      ],
      [
        "▁манайд",
        -9.709351539611816
      ],
      [
        "▁зориг",
        -9.709853172302246
      ],
      [
        "▁Шүүхийн",
        -9.71031379699707
      ],
      [
        "п",
        -9.71047306060791
      ],
      [
        "▁хөрш",
        -9.71047306060791
      ],
      [
        "▁Намын",
        -9.710954666137695
      ],
      [
        "▁хүүг",
        -9.711146354675293
      ],
      [
        "▁цагаар",
        -9.712179183959961
      ],
      [
        "сний",
        -9.712258338928223
      ],
      [
        "▁гоё",
        -9.712308883666992
      ],
      [
        "▁у",
        -9.712823867797852
      ],
      [
        "▁үнээр",
        -9.714706420898438
      ],
      [
        "▁хүсэлтэй",
        -9.714750289916992
      ],
      [
        "▁хүлээх",
        -9.715636253356934
      ],
      [
        "ли",
        -9.715954780578613
      ],
      [
        "▁Дээд",
        -9.71633529663086
      ],
      [
        "▁дутуу",
        -9.716670036315918
      ],
      [
        "нууд",
        -9.717792510986328
      ],
      [
        "▁Чингэлтэй",
        -9.71788501739502
      ],
      [
        "▁болохоос",
        -9.718701362609863
      ],
      [
        "▁29",
        -9.718704223632812
      ],
      [
        "▁зар",
        -9.718745231628418
      ],
      [
        "▁од",
        -9.718818664550781
      ],
      [
        "▁хэлдэг",
        -9.71904468536377
      ],
      [
        "▁чөлөөлөх",
        -9.719320297241211
      ],
      [
        "▁ажиллагаатай",
        -9.71946907043457
      ],
      [
        "▁байгаагаас",
        -9.720878601074219
      ],
      [
        "▁хэлбэр",
        -9.722712516784668
      ],
      [
        "▁хөдөлгөөнд",
        -9.723001480102539
      ],
      [
        "▁Эрх",
        -9.723501205444336
      ],
      [
        "▁Цас",
        -9.723578453063965
      ],
      [
        "▁орнуудад",
        -9.724261283874512
      ],
      [
        "▁үзүүлсэн",
        -9.724535942077637
      ],
      [
        "▁шийдвэрлэсэн",
        -9.72475814819336
      ],
      [
        "▁ухаалаг",
        -9.724794387817383
      ],
      [
        "▁түргэн",
        -9.725149154663086
      ],
      [
        "▁хөгжлийг",
        -9.725184440612793
      ],
      [
        "▁Цаг",
        -9.72530460357666
      ],
      [
        "▁дамжин",
        -9.726156234741211
      ],
      [
        "▁жаахан",
        -9.726507186889648
      ],
      [
        "▁хонь",
        -9.726512908935547
      ],
      [
        "ит",
        -9.727548599243164
      ],
      [
        "▁удирдагч",
        -9.728659629821777
      ],
      [
        "▁зөөлөн",
        -9.728757858276367
      ],
      [
        "▁цаана",
        -9.729119300842285
      ],
      [
        "▁Холбооны",
        -9.72927188873291
      ],
      [
        "▁боловсон",
        -9.72927188873291
      ],
      [
        "▁судлалын",
        -9.730924606323242
      ],
      [
        "▁сайтар",
        -9.731860160827637
      ],
      [
        "▁болчихсон",
        -9.732372283935547
      ],
      [
        "Эрдэнэс",
        -9.733006477355957
      ],
      [
        "гоо",
        -9.733049392700195
      ],
      [
        "▁нөхөд",
        -9.733259201049805
      ],
      [
        "▁халдвар",
        -9.733668327331543
      ],
      [
        "▁мөр",
        -9.734703063964844
      ],
      [
        "▁шинжтэй",
        -9.73552131652832
      ],
      [
        "▁ажилтнууд",
        -9.736102104187012
      ],
      [
        "▁судлаач",
        -9.737895011901855
      ],
      [
        "чдын",
        -9.738123893737793
      ],
      [
        "▁өдгөө",
        -9.738471984863281
      ],
      [
        "▁цасан",
        -9.73897933959961
      ],
      [
        "▁эхэлжээ",
        -9.739108085632324
      ],
      [
        "▁хадгалах",
        -9.739940643310547
      ],
      [
        "ос",
        -9.74059009552002
      ],
      [
        "үүдийн",
        -9.74096965789795
      ],
      [
        "▁шийдсэн",
        -9.741267204284668
      ],
      [
        "уу",
        -9.741347312927246
      ],
      [
        "О",
        -9.74181079864502
      ],
      [
        "c",
        -9.741878509521484
      ],
      [
        "▁тэргүүтэй",
        -9.741883277893066
      ],
      [
        "▁Аль",
        -9.741971015930176
      ],
      [
        "▁гайхалтай",
        -9.741981506347656
      ],
      [
        "▁дууссан",
        -9.742047309875488
      ],
      [
        "▁яригдаж",
        -9.743877410888672
      ],
      [
        "▁зогсохгүй",
        -9.744306564331055
      ],
      [
        "▁асуудлууд",
        -9.74445915222168
      ],
      [
        "▁бэхжүүлэх",
        -9.744975090026855
      ],
      [
        "▁өртөг",
        -9.74526596069336
      ],
      [
        "▁сангаас",
        -9.745567321777344
      ],
      [
        "ье",
        -9.745675086975098
      ],
      [
        "▁ажиллахыг",
        -9.745704650878906
      ],
      [
        "▁нүд",
        -9.745716094970703
      ],
      [
        "▁шинэчлэн",
        -9.745875358581543
      ],
      [
        "▁Эрчим",
        -9.745940208435059
      ],
      [
        "▁байлгах",
        -9.748603820800781
      ],
      [
        "▁автомашины",
        -9.748712539672852
      ],
      [
        "▁машины",
        -9.749555587768555
      ],
      [
        "▁суурьтай",
        -9.749700546264648
      ],
      [
        "▁салбарыг",
        -9.749756813049316
      ],
      [
        "▁аюул",
        -9.749978065490723
      ],
      [
        "▁засах",
        -9.750401496887207
      ],
      [
        "▁ойлгох",
        -9.750570297241211
      ],
      [
        "▁талархал",
        -9.750596046447754
      ],
      [
        "▁ТҮГЭЭХ",
        -9.751143455505371
      ],
      [
        "▁хугацаатай",
        -9.75158405303955
      ],
      [
        "▁400",
        -9.751675605773926
      ],
      [
        "▁бич",
        -9.752314567565918
      ],
      [
        "▁Иргэдийн",
        -9.752752304077148
      ],
      [
        "▁үзэхэд",
        -9.753820419311523
      ],
      [
        "▁цөмийн",
        -9.754459381103516
      ],
      [
        "▁түвшин",
        -9.755001068115234
      ],
      [
        "▁санхүү",
        -9.755087852478027
      ],
      [
        "▁Дуу",
        -9.755393028259277
      ],
      [
        "▁хэрэглэдэг",
        -9.756453514099121
      ],
      [
        "▁Тавантолгой",
        -9.757122039794922
      ],
      [
        "▁эрхлэгч",
        -9.757226943969727
      ],
      [
        "▁шөнө",
        -9.757284164428711
      ],
      [
        "▁эзэлж",
        -9.757905960083008
      ],
      [
        "▁холбогдол",
        -9.758014678955078
      ],
      [
        "▁компаниудын",
        -9.758045196533203
      ],
      [
        "▁бүртгэл",
        -9.758109092712402
      ],
      [
        "▁ЗДТГ",
        -9.758478164672852
      ],
      [
        "09",
        -9.75887680053711
      ],
      [
        "▁дахиад",
        -9.759538650512695
      ],
      [
        "▁хэрэглээ",
        -9.75955867767334
      ],
      [
        "▁дунджаар",
        -9.759687423706055
      ],
      [
        "▁хийгдсэн",
        -9.760026931762695
      ],
      [
        "▁хүүхдүүдийн",
        -9.76008129119873
      ],
      [
        "▁ногоо",
        -9.761211395263672
      ],
      [
        "▁чуулганаар",
        -9.761637687683105
      ],
      [
        "▁очих",
        -9.761716842651367
      ],
      [
        "▁Хэнтий",
        -9.761977195739746
      ],
      [
        "▁өвөр",
        -9.762077331542969
      ],
      [
        "▁үлдэх",
        -9.762743949890137
      ],
      [
        "Алтанхуяг",
        -9.762907028198242
      ],
      [
        "▁Иргэний",
        -9.763580322265625
      ],
      [
        "▁тогтоолоор",
        -9.763586044311523
      ],
      [
        "n",
        -9.763668060302734
      ],
      [
        "▁to",
        -9.76392650604248
      ],
      [
        "▁A",
        -9.764534950256348
      ],
      [
        "▁хөгжилд",
        -9.765090942382812
      ],
      [
        "▁хэрэгжилтийг",
        -9.765240669250488
      ],
      [
        "▁битгий",
        -9.765297889709473
      ],
      [
        "▁биднийг",
        -9.765524864196777
      ],
      [
        "▁12-14",
        -9.766779899597168
      ],
      [
        "▁магадлал",
        -9.768006324768066
      ],
      [
        "▁хэлтэс",
        -9.769081115722656
      ],
      [
        "▁авахад",
        -9.769083976745605
      ],
      [
        "▁сайхны",
        -9.769957542419434
      ],
      [
        "▁цогцолбор",
        -9.771214485168457
      ],
      [
        "ла",
        -9.771267890930176
      ],
      [
        "▁эрхээ",
        -9.772537231445312
      ],
      [
        "шин",
        -9.772884368896484
      ],
      [
        "7",
        -9.77314281463623
      ],
      [
        "ана",
        -9.773669242858887
      ],
      [
        "▁буурч",
        -9.773677825927734
      ],
      [
        "▁хандсан",
        -9.773762702941895
      ],
      [
        "▁гараг",
        -9.77414608001709
      ],
      [
        "▁үхэр",
        -9.774274826049805
      ],
      [
        "▁Хөрөнгө",
        -9.774495124816895
      ],
      [
        "▁30-",
        -9.774925231933594
      ],
      [
        "▁амьсгалын",
        -9.774935722351074
      ],
      [
        "▁зааж",
        -9.775712013244629
      ],
      [
        "▁Говь",
        -9.776250839233398
      ],
      [
        "▁Дээр",
        -9.776982307434082
      ],
      [
        "▁оролцоо",
        -9.777711868286133
      ],
      [
        "▁танай",
        -9.778667449951172
      ],
      [
        "▁өвлийн",
        -9.778968811035156
      ],
      [
        "▁байгаагийн",
        -9.780122756958008
      ],
      [
        "▁Булган",
        -9.781105041503906
      ],
      [
        "▁Чи",
        -9.782123565673828
      ],
      [
        "▁жилтнээ",
        -9.782517433166504
      ],
      [
        "▁ТББ",
        -9.782790184020996
      ],
      [
        "▁ир",
        -9.783828735351562
      ],
      [
        "▁ачаалал",
        -9.78448486328125
      ],
      [
        "u",
        -9.785149574279785
      ],
      [
        "ar",
        -9.786171913146973
      ],
      [
        "▁мэдэгдэж",
        -9.786338806152344
      ],
      [
        "▁хурандаа",
        -9.786344528198242
      ],
      [
        "▁аврах",
        -9.786571502685547
      ],
      [
        "▁суралцах",
        -9.787203788757324
      ],
      [
        "▁хоёрын",
        -9.787367820739746
      ],
      [
        "лоо",
        -9.787638664245605
      ],
      [
        "эв",
        -9.788507461547852
      ],
      [
        "▁жин",
        -9.789193153381348
      ],
      [
        "▁хуралдааны",
        -9.789346694946289
      ],
      [
        "▁гэгч",
        -9.789436340332031
      ],
      [
        "▁ойлгомжтой",
        -9.789484024047852
      ],
      [
        "▁M",
        -9.789671897888184
      ],
      [
        "11",
        -9.78981876373291
      ],
      [
        "▁шалгарсан",
        -9.789860725402832
      ],
      [
        "▁хоолны",
        -9.791481971740723
      ],
      [
        "▁хурлаар",
        -9.792401313781738
      ],
      [
        "▁5-",
        -9.79244327545166
      ],
      [
        "▁хөнгөлөлттэй",
        -9.793241500854492
      ],
      [
        "▁33",
        -9.79379940032959
      ],
      [
        "▁хүрэлцэн",
        -9.794275283813477
      ],
      [
        "би",
        -9.795548439025879
      ],
      [
        "▁нөөцийн",
        -9.796687126159668
      ],
      [
        "▁шинэчлэх",
        -9.796988487243652
      ],
      [
        "▁олгодог",
        -9.79705810546875
      ],
      [
        "▁хөрөнгөөр",
        -9.797382354736328
      ],
      [
        "▁цөөнгүй",
        -9.79738712310791
      ],
      [
        "8",
        -9.797560691833496
      ],
      [
        "▁хөндийгөөр",
        -9.797612190246582
      ],
      [
        "▁автобус",
        -9.797672271728516
      ],
      [
        "▁бодитой",
        -9.797798156738281
      ],
      [
        "▁ундаа",
        -9.79844856262207
      ],
      [
        "▁25-",
        -9.798467636108398
      ],
      [
        "▁бохирдлыг",
        -9.798952102661133
      ],
      [
        "▁18-",
        -9.799053192138672
      ],
      [
        "▁чадварыг",
        -9.800230979919434
      ],
      [
        "хөө",
        -9.800318717956543
      ],
      [
        "▁нэмэгдүүлж",
        -9.8008451461792
      ],
      [
        "C",
        -9.800897598266602
      ],
      [
        "▁хүсэлтийг",
        -9.801036834716797
      ],
      [
        "▁нэрэмжит",
        -9.801725387573242
      ],
      [
        "уул",
        -9.803098678588867
      ],
      [
        "▁зорчигч",
        -9.803159713745117
      ],
      [
        "ур",
        -9.803215026855469
      ],
      [
        "▁тойрогт",
        -9.804887771606445
      ],
      [
        "▁дэлгэрэнгүй",
        -9.804937362670898
      ],
      [
        "▁багатай",
        -9.805509567260742
      ],
      [
        "▁зургаа",
        -9.805538177490234
      ],
      [
        "▁үүнд",
        -9.805815696716309
      ],
      [
        "▁чадвал",
        -9.80646800994873
      ],
      [
        "▁Үнэхээр",
        -9.806593894958496
      ],
      [
        "ласан",
        -9.806950569152832
      ],
      [
        "▁хамгаалалтын",
        -9.807343482971191
      ],
      [
        "▁тэнцэх",
        -9.80749797821045
      ],
      [
        "▁бүтээх",
        -9.807595252990723
      ],
      [
        "▁түүхэнд",
        -9.808173179626465
      ],
      [
        "▁Хэрэг",
        -9.808578491210938
      ],
      [
        "▁зориулан",
        -9.808661460876465
      ],
      [
        "▁Таван",
        -9.808773040771484
      ],
      [
        "al",
        -9.809094429016113
      ],
      [
        "▁Гэсэн",
        -9.809158325195312
      ],
      [
        "▁Монголбанкны",
        -9.809295654296875
      ],
      [
        "▁онгоцны",
        -9.80974006652832
      ],
      [
        "▁үзэгдэл",
        -9.80978775024414
      ],
      [
        "▁томилох",
        -9.810002326965332
      ],
      [
        "▁Иргэд",
        -9.810026168823242
      ],
      [
        "▁бичлэг",
        -9.810168266296387
      ],
      [
        "▁дээрээс",
        -9.810369491577148
      ],
      [
        "▁тоот",
        -9.810731887817383
      ],
      [
        "▁буйг",
        -9.8109130859375
      ],
      [
        "▁эзэмших",
        -9.811318397521973
      ],
      [
        "▁яамнаас",
        -9.811583518981934
      ],
      [
        "Энх",
        -9.811650276184082
      ],
      [
        "их",
        -9.812328338623047
      ],
      [
        "▁шаардлагагүй",
        -9.8126859664917
      ],
      [
        "▁доо",
        -9.814236640930176
      ],
      [
        "▁150",
        -9.814407348632812
      ],
      [
        "▁Сайн",
        -9.814483642578125
      ],
      [
        "▁хэрэгжүүлсэн",
        -9.81532096862793
      ],
      [
        "▁өгөхгүй",
        -9.815638542175293
      ],
      [
        "▁халдварт",
        -9.815646171569824
      ],
      [
        "▁талбайн",
        -9.81660270690918
      ],
      [
        "▁нуур",
        -9.816608428955078
      ],
      [
        "дсан",
        -9.817156791687012
      ],
      [
        "▁чулуу",
        -9.817632675170898
      ],
      [
        "▁За",
        -9.818206787109375
      ],
      [
        "гийг",
        -9.819478988647461
      ],
      [
        "ат",
        -9.819873809814453
      ],
      [
        "▁2020",
        -9.82005500793457
      ],
      [
        "▁Улаан",
        -9.82024097442627
      ],
      [
        "▁авчээ",
        -9.822148323059082
      ],
      [
        "▁онц",
        -9.822525024414062
      ],
      [
        "/;",
        -9.82253646850586
      ],
      [
        "▁очоод",
        -9.822884559631348
      ],
      [
        "ган",
        -9.823019027709961
      ],
      [
        "▁тодорхойлох",
        -9.823027610778809
      ],
      [
        "▁үндэслэл",
        -9.823232650756836
      ],
      [
        "A",
        -9.82347297668457
      ],
      [
        "▁ордны",
        -9.823534965515137
      ],
      [
        "▁тутмын",
        -9.823789596557617
      ],
      [
        "▁51",
        -9.823847770690918
      ],
      [
        "▁хэрэглээний",
        -9.823986053466797
      ],
      [
        "▁яруу",
        -9.824119567871094
      ],
      [
        "▁Гол",
        -9.824544906616211
      ],
      [
        "▁тариа",
        -9.824557304382324
      ],
      [
        "▁үргэлжлэх",
        -9.824840545654297
      ],
      [
        "▁нийтдээ",
        -9.824918746948242
      ],
      [
        "▁арав",
        -9.825096130371094
      ],
      [
        "04",
        -9.825305938720703
      ],
      [
        "▁Хотын",
        -9.825667381286621
      ],
      [
        "Хүрэлсүх",
        -9.82600212097168
      ],
      [
        "▁дэргэд",
        -9.826212882995605
      ],
      [
        "▁үүсвэр",
        -9.82640266418457
      ],
      [
        "▁ордонд",
        -9.826791763305664
      ],
      [
        "▁чанарын",
        -9.827092170715332
      ],
      [
        "▁хүрээ",
        -9.827214241027832
      ],
      [
        "▁татсан",
        -9.827549934387207
      ],
      [
        "▁дасгал",
        -9.827795028686523
      ],
      [
        "▁үзээд",
        -9.828394889831543
      ],
      [
        "▁ахлагч",
        -9.829172134399414
      ],
      [
        "▁сүү",
        -9.829526901245117
      ],
      [
        "Нямдорж",
        -9.829719543457031
      ],
      [
        "▁бичигт",
        -9.829765319824219
      ],
      [
        "▁болоогүй",
        -9.830378532409668
      ],
      [
        "▁урьд",
        -9.830742835998535
      ],
      [
        "▁дипломат",
        -9.830789566040039
      ],
      [
        "▁чин",
        -9.832451820373535
      ],
      [
        "▁зургадугаар",
        -9.832480430603027
      ],
      [
        "12",
        -9.83276081085205
      ],
      [
        "▁мөнгөөр",
        -9.83287525177002
      ],
      [
        "▁буйгаа",
        -9.833383560180664
      ],
      [
        "Мөнх",
        -9.833542823791504
      ],
      [
        "▁Зэвсэгт",
        -9.833568572998047
      ],
      [
        "▁аравдугаар",
        -9.83380126953125
      ],
      [
        "▁хэдхэн",
        -9.833950996398926
      ],
      [
        "▁гэнэт",
        -9.834177017211914
      ],
      [
        "тайгаар",
        -9.834416389465332
      ],
      [
        "▁жирийн",
        -9.834847450256348
      ],
      [
        "▁болсныг",
        -9.834939956665039
      ],
      [
        "▁хэрэгжих",
        -9.835054397583008
      ],
      [
        "▁малтмалын",
        -9.835099220275879
      ],
      [
        "Алтай",
        -9.836193084716797
      ],
      [
        "▁хүргэе",
        -9.836524963378906
      ],
      [
        "▁бодсон",
        -9.83690071105957
      ],
      [
        "▁хянан",
        -9.837288856506348
      ],
      [
        "уулах",
        -9.83873176574707
      ],
      [
        "▁жилээс",
        -9.839054107666016
      ],
      [
        "▁дөрөв",
        -9.839353561401367
      ],
      [
        "▁туршлагатай",
        -9.840376853942871
      ],
      [
        "Сайханбилэг",
        -9.84060001373291
      ],
      [
        "▁мэдээлсэн",
        -9.840641021728516
      ],
      [
        "G",
        -9.841126441955566
      ],
      [
        "чихаад",
        -9.84315299987793
      ],
      [
        "▁өөрчилж",
        -9.843158721923828
      ],
      [
        "▁11-",
        -9.84366226196289
      ],
      [
        "▁ж",
        -9.844435691833496
      ],
      [
        "15",
        -9.844594955444336
      ],
      [
        "▁адилхан",
        -9.845101356506348
      ],
      [
        "▁ая",
        -9.845168113708496
      ],
      [
        "▁болгоно",
        -9.84538459777832
      ],
      [
        "9",
        -9.846572875976562
      ],
      [
        "▁байтал",
        -9.847116470336914
      ],
      [
        "▁гүйцэтгэгч",
        -9.847281455993652
      ],
      [
        "▁Нам",
        -9.847310066223145
      ],
      [
        "▁хоолой",
        -9.847393035888672
      ],
      [
        "▁ХК",
        -9.847514152526855
      ],
      [
        "▁мастер",
        -9.847618103027344
      ],
      [
        "рах",
        -9.848244667053223
      ],
      [
        "▁5.",
        -9.848869323730469
      ],
      [
        "ог",
        -9.84933853149414
      ],
      [
        "▁байцаагч",
        -9.850311279296875
      ],
      [
        "▁хэлэлцүүлэгт",
        -9.850774765014648
      ],
      [
        "▁оновчтой",
        -9.850918769836426
      ],
      [
        "▁дайн",
        -9.851249694824219
      ],
      [
        "E",
        -9.851401329040527
      ],
      [
        "01",
        -9.851848602294922
      ],
      [
        "лэж",
        -9.851881980895996
      ],
      [
        "▁суралцаж",
        -9.852189064025879
      ],
      [
        "▁байрыг",
        -9.85253620147705
      ],
      [
        "▁оруулалтыг",
        -9.852713584899902
      ],
      [
        "t",
        -9.852953910827637
      ],
      [
        "▁бохир",
        -9.85295581817627
      ],
      [
        "40",
        -9.853282928466797
      ],
      [
        "M",
        -9.853649139404297
      ],
      [
        "маа",
        -9.85394287109375
      ],
      [
        "▁илтгэл",
        -9.8539457321167
      ],
      [
        "▁эрсдэлтэй",
        -9.854273796081543
      ],
      [
        "▁хаяг",
        -9.854275703430176
      ],
      [
        "▁Аж",
        -9.854297637939453
      ],
      [
        "▁Алтай",
        -9.854772567749023
      ],
      [
        "▁бурхан",
        -9.855216979980469
      ],
      [
        "▁сурагч",
        -9.855501174926758
      ],
      [
        "эм",
        -9.855875968933105
      ],
      [
        "▁хаврын",
        -9.855979919433594
      ],
      [
        "нийг",
        -9.856548309326172
      ],
      [
        "▁судлах",
        -9.856600761413574
      ],
      [
        "дийн",
        -9.856770515441895
      ],
      [
        "Та",
        -9.857073783874512
      ],
      [
        "▁үүсч",
        -9.857100486755371
      ],
      [
        "▁сэдвээр",
        -9.857669830322266
      ],
      [
        "▁эхчүүд",
        -9.85788345336914
      ],
      [
        "▁хэрэгцээ",
        -9.858372688293457
      ],
      [
        "▁асуултад",
        -9.858489990234375
      ],
      [
        "▁харамсалтай",
        -9.858819961547852
      ],
      [
        "Алтан",
        -9.859400749206543
      ],
      [
        "▁удаагаа",
        -9.859457969665527
      ],
      [
        "▁тулгамдсан",
        -9.85946273803711
      ],
      [
        "▁Найрамдах",
        -9.85973072052002
      ],
      [
        "уур",
        -9.860368728637695
      ],
      [
        "▁Германы",
        -9.861126899719238
      ],
      [
        "▁дэвших",
        -9.861169815063477
      ],
      [
        "▁даргад",
        -9.861352920532227
      ],
      [
        "▁чөлөөтэй",
        -9.861723899841309
      ],
      [
        "▁салхи",
        -9.862447738647461
      ],
      [
        "▁тайлан",
        -9.862775802612305
      ],
      [
        "Их",
        -9.863847732543945
      ],
      [
        "▁даргыг",
        -9.863965034484863
      ],
      [
        "▁12-",
        -9.864025115966797
      ],
      [
        "▁бохирдол",
        -9.864922523498535
      ],
      [
        "▁байдлаас",
        -9.864970207214355
      ],
      [
        "жиж",
        -9.865608215332031
      ],
      [
        "▁хураалт",
        -9.865626335144043
      ],
      [
        "лээд",
        -9.866085052490234
      ],
      [
        "▁багц",
        -9.866276741027832
      ],
      [
        "▁сонгосон",
        -9.867400169372559
      ],
      [
        "Бид",
        -9.869311332702637
      ],
      [
        "▁хаагчдын",
        -9.869494438171387
      ],
      [
        "▁36",
        -9.869606018066406
      ],
      [
        "▁нөхцөлийг",
        -9.869653701782227
      ],
      [
        "▁Хурал",
        -9.870087623596191
      ],
      [
        "▁хэвшлийн",
        -9.8701810836792
      ],
      [
        "▁ажилдаа",
        -9.870583534240723
      ],
      [
        "▁Эхний",
        -9.870931625366211
      ],
      [
        "▁мэдээллээр",
        -9.871041297912598
      ],
      [
        "хи",
        -9.87119197845459
      ],
      [
        "ул",
        -9.87176513671875
      ],
      [
        "▁эл",
        -9.871989250183105
      ],
      [
        "▁бөмбөг",
        -9.872039794921875
      ],
      [
        "▁сонссон",
        -9.873090744018555
      ],
      [
        "▁дайны",
        -9.873296737670898
      ],
      [
        "▁телевизийн",
        -9.873668670654297
      ],
      [
        "▁гуай",
        -9.873798370361328
      ],
      [
        "▁бэрхшээл",
        -9.873984336853027
      ],
      [
        "▁баатар",
        -9.874696731567383
      ],
      [
        "▁сонгож",
        -9.874809265136719
      ],
      [
        "▁ариун",
        -9.87500286102295
      ],
      [
        "▁гадаадад",
        -9.875075340270996
      ],
      [
        "▁тэжээл",
        -9.87513256072998
      ],
      [
        "▁Ар",
        -9.875231742858887
      ],
      [
        "▁Герман",
        -9.87536907196045
      ],
      [
        "▁нийцсэн",
        -9.875609397888184
      ],
      [
        "▁ярилцлага",
        -9.875720024108887
      ],
      [
        "▁D",
        -9.87633991241455
      ],
      [
        "▁худал",
        -9.876340866088867
      ],
      [
        "▁луу",
        -9.877185821533203
      ],
      [
        "▁зав",
        -9.877442359924316
      ],
      [
        "▁цэцэг",
        -9.877962112426758
      ],
      [
        "▁даван",
        -9.877963066101074
      ],
      [
        "▁нэгжийн",
        -9.878133773803711
      ],
      [
        "▁арслан",
        -9.878499031066895
      ],
      [
        "▁болоход",
        -9.878911972045898
      ],
      [
        "▁албаныхан",
        -9.878957748413086
      ],
      [
        "▁Гал",
        -9.879868507385254
      ],
      [
        "▁хүндрэлтэй",
        -9.880735397338867
      ],
      [
        "▁ажлууд",
        -9.880863189697266
      ],
      [
        "▁тоглох",
        -9.880925178527832
      ],
      [
        "▁танилцууллаа",
        -9.881088256835938
      ],
      [
        "▁Мал",
        -9.881423950195312
      ],
      [
        "▁сайдыг",
        -9.8818941116333
      ],
      [
        "ри",
        -9.88206672668457
      ],
      [
        "▁Си",
        -9.88237190246582
      ],
      [
        "▁эхлүүлсэн",
        -9.882783889770508
      ],
      [
        "▁65",
        -9.88368034362793
      ],
      [
        "▁ядуу",
        -9.883976936340332
      ],
      [
        "Я",
        -9.884431838989258
      ],
      [
        "▁онцлон",
        -9.88444709777832
      ],
      [
        "▁унасан",
        -9.884544372558594
      ],
      [
        "▁4-",
        -9.884931564331055
      ],
      [
        "▁төрөлд",
        -9.887487411499023
      ],
      [
        "▁тасралтгүй",
        -9.887836456298828
      ],
      [
        "ив",
        -9.887872695922852
      ],
      [
        "▁төсвөөс",
        -9.88790225982666
      ],
      [
        "▁тоглоом",
        -9.887956619262695
      ],
      [
        "▁хатан",
        -9.88845157623291
      ],
      [
        "Очир",
        -9.888566970825195
      ],
      [
        "▁гаргажээ",
        -9.888751983642578
      ],
      [
        "50",
        -9.88888168334961
      ],
      [
        "▁ачаа",
        -9.88906192779541
      ],
      [
        "▁хараат",
        -9.889886856079102
      ],
      [
        "▁стратегийн",
        -9.890912055969238
      ],
      [
        "▁07",
        -9.891265869140625
      ],
      [
        "гар",
        -9.891622543334961
      ],
      [
        "▁захирагч",
        -9.891851425170898
      ],
      [
        "▁үзнэ",
        -9.892435073852539
      ],
      [
        "▁хүрэхгүй",
        -9.892775535583496
      ],
      [
        "▁Өмнөговь",
        -9.893560409545898
      ],
      [
        "▁бичгийг",
        -9.89417552947998
      ],
      [
        "▁үзүүлдэг",
        -9.894706726074219
      ],
      [
        "▁танхим",
        -9.895853042602539
      ],
      [
        "▁хийлгэх",
        -9.896127700805664
      ],
      [
        "▁Магадгүй",
        -9.89711856842041
      ],
      [
        "гч",
        -9.897714614868164
      ],
      [
        "ус",
        -9.898465156555176
      ],
      [
        "▁өгчээ",
        -9.900158882141113
      ],
      [
        "▁1990",
        -9.900594711303711
      ],
      [
        "▁алдарт",
        -9.900612831115723
      ],
      [
        "▁2019",
        -9.901206970214844
      ],
      [
        "▁инженер",
        -9.901982307434082
      ],
      [
        "ун",
        -9.902190208435059
      ],
      [
        "▁зай",
        -9.902521133422852
      ],
      [
        "▁сонсох",
        -9.902719497680664
      ],
      [
        "▁мужийн",
        -9.902810096740723
      ],
      [
        "дөг",
        -9.902870178222656
      ],
      [
        "▁ардын",
        -9.90496826171875
      ],
      [
        "▁нийслэлд",
        -9.905043601989746
      ],
      [
        "▁хүүхэдтэй",
        -9.905461311340332
      ],
      [
        "▁байгуулан",
        -9.9056396484375
      ],
      [
        "▁хороолол",
        -9.905810356140137
      ],
      [
        "▁эрэлт",
        -9.9060697555542
      ],
      [
        "ъя",
        -9.90650463104248
      ],
      [
        "▁31",
        -9.907039642333984
      ],
      [
        "ис",
        -9.907999992370605
      ],
      [
        "▁чанарыг",
        -9.908153533935547
      ],
      [
        "▁хамгаалахын",
        -9.908445358276367
      ],
      [
        "▁хятад",
        -9.908754348754883
      ],
      [
        "▁групп",
        -9.908997535705566
      ],
      [
        "▁эрдэмтэд",
        -9.90988540649414
      ],
      [
        "▁үргэлжлүүлэн",
        -9.91130542755127
      ],
      [
        "▁F",
        -9.911982536315918
      ],
      [
        "иг",
        -9.913089752197266
      ],
      [
        "▁хурд",
        -9.914745330810547
      ],
      [
        "▁тэгээд",
        -9.914834976196289
      ],
      [
        "▁ипотекийн",
        -9.915555953979492
      ],
      [
        "03",
        -9.916707038879395
      ],
      [
        "▁хямрал",
        -9.917247772216797
      ],
      [
        "25",
        -9.917671203613281
      ],
      [
        "▁захиргаа",
        -9.917862892150879
      ],
      [
        "▁16-",
        -9.91852855682373
      ],
      [
        "▁суудал",
        -9.918964385986328
      ],
      [
        "▁үйлийг",
        -9.919075965881348
      ],
      [
        "▁мэдэл",
        -9.919342041015625
      ],
      [
        "▁илэрхийлэх",
        -9.920119285583496
      ],
      [
        "▁хөгжим",
        -9.920374870300293
      ],
      [
        "▁хандив",
        -9.920473098754883
      ],
      [
        "▁төгс",
        -9.920854568481445
      ],
      [
        "▁танил",
        -9.920947074890137
      ],
      [
        "▁баян",
        -9.920999526977539
      ],
      [
        "▁чанга",
        -9.921407699584961
      ],
      [
        "▁анхаарлаа",
        -9.921581268310547
      ],
      [
        "▁хүргэсэн",
        -9.922043800354004
      ],
      [
        "▁банкнаас",
        -9.922961235046387
      ],
      [
        "▁санхүүжилтийн",
        -9.923060417175293
      ],
      [
        "▁48",
        -9.923506736755371
      ],
      [
        "▁ёслол",
        -9.923644065856934
      ],
      [
        "▁асуудалтай",
        -9.924057960510254
      ],
      [
        "▁судалгаагаар",
        -9.924744606018066
      ],
      [
        "▁хэлэлцүүлгийг",
        -9.924936294555664
      ],
      [
        "▁БИЧИХ",
        -9.925405502319336
      ],
      [
        "▁намууд",
        -9.925929069519043
      ],
      [
        "▁Захирагч",
        -9.926074028015137
      ],
      [
        "▁чуулга",
        -9.926105499267578
      ],
      [
        "▁нэгэнт",
        -9.92662525177002
      ],
      [
        "▁Налайх",
        -9.92699909210205
      ],
      [
        "▁хүүгийн",
        -9.927574157714844
      ],
      [
        "▁уулзалтад",
        -9.927674293518066
      ],
      [
        "▁гараа",
        -9.92807674407959
      ],
      [
        "▁шилжүүлэн",
        -9.928142547607422
      ],
      [
        "▁шашны",
        -9.928637504577637
      ],
      [
        "▁дийлэнх",
        -9.9286527633667
      ],
      [
        "▁оффшор",
        -9.928927421569824
      ],
      [
        "▁оролцогч",
        -9.929193496704102
      ],
      [
        "▁гэрээнд",
        -9.929675102233887
      ],
      [
        "▁бэлтгэж",
        -9.929717063903809
      ],
      [
        "▁бэлгийн",
        -9.929890632629395
      ],
      [
        "▁шийдэл",
        -9.92990779876709
      ],
      [
        "▁дөнгөж",
        -9.930580139160156
      ],
      [
        "▁ХОТ",
        -9.930961608886719
      ],
      [
        "▁түвшний",
        -9.93114948272705
      ],
      [
        "▁УЛААНБААТАР",
        -9.931245803833008
      ],
      [
        "▁орших",
        -9.93124771118164
      ],
      [
        "▁6-",
        -9.931492805480957
      ],
      [
        "▁асуудлуудыг",
        -9.931758880615234
      ],
      [
        "▁дугуй",
        -9.931781768798828
      ],
      [
        "▁Боловсролын",
        -9.932141304016113
      ],
      [
        "▁эмчилгээний",
        -9.932514190673828
      ],
      [
        "▁үнэлж",
        -9.933558464050293
      ],
      [
        "лсан",
        -9.93360710144043
      ],
      [
        "▁сонгуулиар",
        -9.93415355682373
      ],
      [
        "Ганбаатар",
        -9.934349060058594
      ],
      [
        "▁тахиа",
        -9.934718132019043
      ],
      [
        "▁зөрчиж",
        -9.935196876525879
      ],
      [
        "таа",
        -9.935402870178223
      ],
      [
        "▁уулзах",
        -9.935491561889648
      ],
      [
        "▁Нэр",
        -9.935540199279785
      ],
      [
        "▁нартай",
        -9.936173439025879
      ],
      [
        "▁09",
        -9.936437606811523
      ],
      [
        "▁цогц",
        -9.936744689941406
      ],
      [
        "▁буу",
        -9.93725299835205
      ],
      [
        "▁түүхийн",
        -9.937592506408691
      ],
      [
        "▁суусан",
        -9.937698364257812
      ],
      [
        "▁Санхүүгийн",
        -9.937786102294922
      ],
      [
        "▁үзлэг",
        -9.937786102294922
      ],
      [
        "▁сайтай",
        -9.938340187072754
      ],
      [
        "▁санамж",
        -9.94028091430664
      ],
      [
        "▁танилцуулна",
        -9.94029712677002
      ],
      [
        "▁чаддаггүй",
        -9.94039535522461
      ],
      [
        "▁in",
        -9.940415382385254
      ],
      [
        "▁G",
        -9.940779685974121
      ],
      [
        "▁Монголбанк",
        -9.940848350524902
      ],
      [
        "▁ажлуудыг",
        -9.940923690795898
      ],
      [
        "▁алдартай",
        -9.940943717956543
      ],
      [
        "▁зарлаж",
        -9.941449165344238
      ],
      [
        "02",
        -9.94158935546875
      ],
      [
        "▁Тэс",
        -9.941996574401855
      ],
      [
        "▁ургамал",
        -9.942350387573242
      ],
      [
        "▁75",
        -9.942390441894531
      ],
      [
        "▁хамрагдсан",
        -9.942700386047363
      ],
      [
        "▁гаргана",
        -9.943957328796387
      ],
      [
        "▁авлига",
        -9.944002151489258
      ],
      [
        "▁МУИС",
        -9.944129943847656
      ],
      [
        "▁галт",
        -9.944937705993652
      ],
      [
        "▁болтол",
        -9.944940567016602
      ],
      [
        "▁бүрдсэн",
        -9.946297645568848
      ],
      [
        "▁сонгодог",
        -9.946484565734863
      ],
      [
        "▁санаж",
        -9.947299003601074
      ],
      [
        "▁ээлжинд",
        -9.947338104248047
      ],
      [
        "▁байшин",
        -9.947370529174805
      ],
      [
        "▁дулааны",
        -9.947415351867676
      ],
      [
        "▁арилгах",
        -9.948493957519531
      ],
      [
        "▁үйлдвэрлэх",
        -9.948564529418945
      ],
      [
        "дэж",
        -9.949104309082031
      ],
      [
        "▁үүсэх",
        -9.950922966003418
      ],
      [
        "▁хэрээр",
        -9.950950622558594
      ],
      [
        "▁Тавантолгойн",
        -9.951610565185547
      ],
      [
        "▁бор",
        -9.951738357543945
      ],
      [
        "▁хэрэгжүүлэхээр",
        -9.952651023864746
      ],
      [
        "▁буудлын",
        -9.952906608581543
      ],
      [
        "▁хэрэглэсэн",
        -9.954039573669434
      ],
      [
        "▁чадалтай",
        -9.955084800720215
      ],
      [
        "▁өргөдөл",
        -9.956727981567383
      ],
      [
        "лон",
        -9.957266807556152
      ],
      [
        "өн",
        -9.958166122436523
      ],
      [
        "▁авалт",
        -9.95852279663086
      ],
      [
        "▁Уулзалтын",
        -9.95887279510498
      ],
      [
        "▁алдагдал",
        -9.958951950073242
      ],
      [
        "▁орлоготой",
        -9.959660530090332
      ],
      [
        "▁дагаад",
        -9.960077285766602
      ],
      [
        "▁илүүтэй",
        -9.960776329040527
      ],
      [
        "▁оролцлоо",
        -9.961081504821777
      ],
      [
        "▁шалгуур",
        -9.961115837097168
      ],
      [
        "▁Архангай",
        -9.961471557617188
      ],
      [
        "рч",
        -9.961472511291504
      ],
      [
        "F",
        -9.961681365966797
      ],
      [
        "▁тэнгэр",
        -9.96226692199707
      ],
      [
        "▁авахгүй",
        -9.962352752685547
      ],
      [
        "▁тусламжийн",
        -9.962545394897461
      ],
      [
        "▁тэргүүний",
        -9.962817192077637
      ],
      [
        "▁хэрэгжүүлэхэд",
        -9.963115692138672
      ],
      [
        "лох",
        -9.963852882385254
      ],
      [
        "▁55",
        -9.963996887207031
      ],
      [
        "▁халамж",
        -9.964075088500977
      ],
      [
        "▁шаардаж",
        -9.965871810913086
      ],
      [
        "▁өмчит",
        -9.966710090637207
      ],
      [
        "▁зурсан",
        -9.966877937316895
      ],
      [
        "▁үйлд",
        -9.96701431274414
      ],
      [
        "▁байрт",
        -9.967090606689453
      ],
      [
        "▁гэм",
        -9.967171669006348
      ],
      [
        "▁үйлчлэх",
        -9.967362403869629
      ],
      [
        "▁монголчуудын",
        -9.96738338470459
      ],
      [
        "▁ёслолын",
        -9.96753215789795
      ],
      [
        "▁идэх",
        -9.968207359313965
      ],
      [
        "▁эхийн",
        -9.968230247497559
      ],
      [
        "▁тусам",
        -9.968231201171875
      ],
      [
        "▁уух",
        -9.968804359436035
      ],
      [
        "▁амархан",
        -9.970962524414062
      ],
      [
        "▁загварын",
        -9.971033096313477
      ],
      [
        "▁зуны",
        -9.97156810760498
      ],
      [
        "▁төлөвлөлт",
        -9.971768379211426
      ],
      [
        "▁Намайг",
        -9.973294258117676
      ],
      [
        "инд",
        -9.973471641540527
      ],
      [
        "▁Хүмүүс",
        -9.973577499389648
      ],
      [
        "▁зохиол",
        -9.97376537322998
      ],
      [
        "▁хорооноос",
        -9.973965644836426
      ],
      [
        "▁экспортын",
        -9.974079132080078
      ],
      [
        "▁тушаалын",
        -9.974370956420898
      ],
      [
        "▁нэгдэж",
        -9.974394798278809
      ],
      [
        "▁гаригт",
        -9.974679946899414
      ],
      [
        "▁уншиж",
        -9.975242614746094
      ],
      [
        "▁бүрэлдэхүүн",
        -9.975605010986328
      ],
      [
        "сныг",
        -9.975798606872559
      ],
      [
        "▁нээлтийн",
        -9.975967407226562
      ],
      [
        "▁журмыг",
        -9.977429389953613
      ],
      [
        "▁онцлогтой",
        -9.977601051330566
      ],
      [
        "▁99",
        -9.977751731872559
      ],
      [
        "снаас",
        -9.978493690490723
      ],
      [
        "хны",
        -9.979331970214844
      ],
      [
        "▁санааг",
        -9.979503631591797
      ],
      [
        "▁орчмын",
        -9.980350494384766
      ],
      [
        "▁таслан",
        -9.980366706848145
      ],
      [
        "in",
        -9.980873107910156
      ],
      [
        "▁өнөөдрийг",
        -9.981359481811523
      ],
      [
        "▁газрууд",
        -9.981368064880371
      ],
      [
        "▁харагдах",
        -9.982199668884277
      ],
      [
        "ныг",
        -9.982534408569336
      ],
      [
        "▁наймаа",
        -9.983087539672852
      ],
      [
        "▁хурлыг",
        -9.983477592468262
      ],
      [
        "уулсан",
        -9.983489990234375
      ],
      [
        "▁ажлаас",
        -9.98354434967041
      ],
      [
        "▁өөрт",
        -9.98366928100586
      ],
      [
        "▁шийдвэрлэж",
        -9.983712196350098
      ],
      [
        "▁талууд",
        -9.98379898071289
      ],
      [
        "▁түмэнд",
        -9.983945846557617
      ],
      [
        "▁цалинг",
        -9.98399829864502
      ],
      [
        "0",
        -9.984195709228516
      ],
      [
        "▁эгч",
        -9.984665870666504
      ],
      [
        "ю",
        -9.985861778259277
      ],
      [
        "▁багт",
        -9.986098289489746
      ],
      [
        "тэн",
        -9.986339569091797
      ],
      [
        "▁Богд",
        -9.9863862991333
      ],
      [
        "▁Дархадын",
        -9.986420631408691
      ],
      [
        "▁6.",
        -9.986431121826172
      ],
      [
        "▁хасах",
        -9.986994743347168
      ],
      [
        "▁шалтгаанаар",
        -9.987067222595215
      ],
      [
        "▁танилцуулах",
        -9.98752498626709
      ],
      [
        "▁зориулалтын",
        -9.987759590148926
      ],
      [
        "үүл",
        -9.987919807434082
      ],
      [
        "▁төрж",
        -9.988056182861328
      ],
      [
        "▁гүүр",
        -9.988336563110352
      ],
      [
        "▁АСЕМ",
        -9.988399505615234
      ],
      [
        "▁анхаарлыг",
        -9.98908805847168
      ],
      [
        "алж",
        -9.989273071289062
      ],
      [
        "▁Улаанбаатарт",
        -9.989297866821289
      ],
      [
        "▁дэлгүүр",
        -9.99055004119873
      ],
      [
        "▁a",
        -9.990848541259766
      ],
      [
        "▁данс",
        -9.991800308227539
      ],
      [
        "▁түрүүлж",
        -9.991896629333496
      ],
      [
        "▁бондын",
        -9.992069244384766
      ],
      [
        "▁муухай",
        -9.992280006408691
      ],
      [
        "▁онцолсон",
        -9.992740631103516
      ],
      [
        "▁багтсан",
        -9.992780685424805
      ],
      [
        "▁төлбөрийг",
        -9.993141174316406
      ],
      [
        "▁оролцоно",
        -9.993287086486816
      ],
      [
        "тон",
        -9.993331909179688
      ],
      [
        "▁мэндэд",
        -9.99459171295166
      ],
      [
        "▁амьсгал",
        -9.994624137878418
      ],
      [
        "▁нэгжүүд",
        -9.995502471923828
      ],
      [
        "▁хэрэглэгч",
        -9.996076583862305
      ],
      [
        "▁хандан",
        -9.996212005615234
      ],
      [
        "▁E",
        -9.996393203735352
      ],
      [
        "▁бод",
        -9.997590065002441
      ],
      [
        "▁хүргүүлсэн",
        -9.997671127319336
      ],
      [
        "▁сур",
        -9.997979164123535
      ],
      [
        "▁амьдралыг",
        -9.99809741973877
      ],
      [
        "▁оролцоог",
        -9.99820613861084
      ],
      [
        "▁Өмнөх",
        -9.998350143432617
      ],
      [
        "▁мөрөө",
        -9.999269485473633
      ],
      [
        "▁нээлт",
        -9.999274253845215
      ],
      [
        "▁эртний",
        -9.999359130859375
      ],
      [
        "▁татварыг",
        -10.000600814819336
      ],
      [
        "▁ажилтай",
        -10.00090503692627
      ],
      [
        "▁албанаас",
        -10.000961303710938
      ],
      [
        "ель",
        -10.001123428344727
      ],
      [
        "▁илэрсэн",
        -10.00124740600586
      ],
      [
        "▁сонирхлын",
        -10.0017728805542
      ],
      [
        "▁клуб",
        -10.001873970031738
      ],
      [
        "▁Америк",
        -10.002889633178711
      ],
      [
        "ом",
        -10.002909660339355
      ],
      [
        "▁хаалга",
        -10.003403663635254
      ],
      [
        "▁тохирсон",
        -10.003548622131348
      ],
      [
        "▁төлөвтэй",
        -10.004182815551758
      ],
      [
        "T",
        -10.004514694213867
      ],
      [
        "▁генерал",
        -10.005165100097656
      ],
      [
        "▁саналын",
        -10.005386352539062
      ],
      [
        "▁сургуулийг",
        -10.005467414855957
      ],
      [
        "▁байгаагаар",
        -10.006041526794434
      ],
      [
        "▁P",
        -10.006641387939453
      ],
      [
        "▁даруй",
        -10.006720542907715
      ],
      [
        "▁жимс",
        -10.006842613220215
      ],
      [
        "Болд",
        -10.007256507873535
      ],
      [
        "▁Хол",
        -10.007412910461426
      ],
      [
        "▁улсыг",
        -10.007444381713867
      ],
      [
        "▁мэдрэмж",
        -10.007601737976074
      ],
      [
        "жих",
        -10.007682800292969
      ],
      [
        "▁Франц",
        -10.007814407348633
      ],
      [
        "▁120",
        -10.007943153381348
      ],
      [
        "▁таагүй",
        -10.008160591125488
      ],
      [
        "▁06",
        -10.008660316467285
      ],
      [
        "▁байгуулагдаж",
        -10.00922679901123
      ],
      [
        "▁ярилцлаа",
        -10.009347915649414
      ],
      [
        "▁тавиад",
        -10.009561538696289
      ],
      [
        "▁орчмоор",
        -10.009725570678711
      ],
      [
        "▁3-8",
        -10.010037422180176
      ],
      [
        "m",
        -10.010241508483887
      ],
      [
        "▁сэдэв",
        -10.010802268981934
      ],
      [
        "▁Бүр",
        -10.011279106140137
      ],
      [
        "an",
        -10.011385917663574
      ],
      [
        "▁хадгалж",
        -10.011873245239258
      ],
      [
        "▁13-",
        -10.01213264465332
      ],
      [
        "уй",
        -10.012417793273926
      ],
      [
        "▁тоогоор",
        -10.012985229492188
      ],
      [
        "▁зарчмын",
        -10.013158798217773
      ],
      [
        "▁хуралдаж",
        -10.01342487335205
      ],
      [
        "▁талаараа",
        -10.01364803314209
      ],
      [
        "com",
        -10.014044761657715
      ],
      [
        "▁тэмцэл",
        -10.014159202575684
      ],
      [
        "▁улирлын",
        -10.014627456665039
      ],
      [
        "▁тойрог",
        -10.014847755432129
      ],
      [
        "▁боловсронгуй",
        -10.014932632446289
      ],
      [
        "▁Сан",
        -10.015107154846191
      ],
      [
        "▁засгаа",
        -10.01568603515625
      ],
      [
        "d",
        -10.016350746154785
      ],
      [
        "▁тушаалтан",
        -10.017311096191406
      ],
      [
        "▁жагсаал",
        -10.017581939697266
      ],
      [
        "ен",
        -10.019427299499512
      ],
      [
        "▁хараа",
        -10.019434928894043
      ],
      [
        "▁Францын",
        -10.020394325256348
      ],
      [
        "▁үгээр",
        -10.020406723022461
      ],
      [
        "▁гараагүй",
        -10.020541191101074
      ],
      [
        "▁Ким",
        -10.020662307739258
      ],
      [
        "▁уулзсан",
        -10.021430969238281
      ],
      [
        "▁гаалийн",
        -10.021653175354004
      ],
      [
        "▁төрөх",
        -10.021989822387695
      ],
      [
        "▁Төмөр",
        -10.022334098815918
      ],
      [
        "▁ордон",
        -10.022510528564453
      ],
      [
        "▁аваргын",
        -10.022688865661621
      ],
      [
        "ман",
        -10.023222923278809
      ],
      [
        "▁7-",
        -10.023523330688477
      ],
      [
        "▁Ли",
        -10.023641586303711
      ],
      [
        "▁Идэр",
        -10.02369499206543
      ],
      [
        "▁14-",
        -10.023877143859863
      ],
      [
        "▁комиссын",
        -10.024035453796387
      ],
      [
        "▁гэрт",
        -10.024256706237793
      ],
      [
        "▁санааны",
        -10.024575233459473
      ],
      [
        "▁байтугай",
        -10.024596214294434
      ],
      [
        "▁хэлэлцэн",
        -10.02468490600586
      ],
      [
        "▁прокурорын",
        -10.024787902832031
      ],
      [
        "▁цаас",
        -10.025128364562988
      ],
      [
        "▁итгэх",
        -10.02519416809082
      ],
      [
        "▁хайх",
        -10.025372505187988
      ],
      [
        "▁зөвлөмж",
        -10.025947570800781
      ],
      [
        "▁эрчимтэй",
        -10.026212692260742
      ],
      [
        "▁02",
        -10.026605606079102
      ],
      [
        "▁ирээдүйн",
        -10.026678085327148
      ],
      [
        "–",
        -10.027316093444824
      ],
      [
        "▁хуурамч",
        -10.027658462524414
      ],
      [
        "тын",
        -10.028499603271484
      ],
      [
        "▁араас",
        -10.028629302978516
      ],
      [
        "▁огцом",
        -10.028918266296387
      ],
      [
        "▁жишиг",
        -10.02934455871582
      ],
      [
        "▁явдлыг",
        -10.029557228088379
      ],
      [
        "▁төлсөн",
        -10.030046463012695
[...]
